{
  "version": "1.0",
  "truncation": null,
  "padding": null,
  "added_tokens": [],
  "normalizer": null,
  "pre_tokenizer": null,
  "post_processor": null,
  "decoder": null,
  "model": {
    "type": "WordPiece",
    "vocab": {
      "teller": 21322,
      "powder": 9898,
      "memorandum": 20336,
      "notwithstanding": 26206,
      "easiest": 25551,
      "emile": 17127,
      "priced": 21125,
      "##win": 10105,
      "monsieur": 21380,
      "indie": 10271,
      "dynamite": 21719,
      "unusually": 12890,
      "##ened": 6675,
      "84": 6391,
      "##eous": 14769,
      "apostolic": 11815,
      "##crat": 23185,
      "strict": 9384,
      "evaluated": 16330,
      "adhere": 25276,
      "taking": 2635,
      "##test": 22199,
      "aim": 6614,
      "##四": 30324,
      "jasmine": 14032,
      "expeditionary": 15372,
      "##cano": 23803,
      "fontana": 27182,
      "##400": 29537,
      "innovative": 9525,
      "healer": 19783,
      "##nian": 11148,
      "guy": 3124,
      "brightness": 18295,
      "samsung": 19102,
      "hepatitis": 28389,
      "crash": 5823,
      "initiative": 6349,
      "##oft": 15794,
      "[unused19]": 20,
      "plaintiff": 20579,
      "albrecht": 25542,
      "superman": 10646,
      "accelerate": 23306,
      "liu": 8607,
      "ramos": 18882,
      "gotten": 5407,
      "eels": 29317,
      "appalachian": 19682,
      "stems": 12402,
      "dangerously": 20754,
      "instinctively": 16607,
      "justified": 15123,
      "dario": 26800,
      "umm": 26114,
      "stuck": 5881,
      "##aint": 22325,
      "[unused195]": 200,
      "cramer": 29433,
      "macintosh": 22228,
      "parsons": 13505,
      "echoing": 17142,
      "voices": 5755,
      "##gens": 21230,
      "cmll": 25395,
      "1997": 2722,
      "heaved": 19970,
      "manson": 21440,
      "authorization": 20104,
      "comprises": 8681,
      "wen": 19181,
      "acts": 4490,
      "##bb": 10322,
      "：": 1993,
      "entities": 11422,
      "3000": 11910,
      "motorsports": 20711,
      "ceded": 19705,
      "ticket": 7281,
      "augmented": 19335,
      "sarcastic": 22473,
      "moody": 14434,
      "##37": 24434,
      "##ssed": 29417,
      "vicinity": 9884,
      "ncaa": 5803,
      "pinnacle": 26007,
      "[unused202]": 207,
      "yoo": 26823,
      "bye": 9061,
      "irregular": 12052,
      "##ts": 3215,
      "regular": 3180,
      "maintaining": 8498,
      "lyon": 10241,
      "customary": 16120,
      "[unused30]": 31,
      "cebu": 23312,
      "govt": 22410,
      "[unused791]": 796,
      "hadley": 21681,
      "aliens": 12114,
      "5": 1019,
      "carey": 11782,
      "referendum": 9782,
      "horsemen": 25431,
      "molecular": 8382,
      "frequented": 24832,
      "single": 2309,
      "gifts": 9604,
      "howard": 4922,
      "schools": 2816,
      "realised": 11323,
      "[unused377]": 382,
      "[unused542]": 547,
      "##fication": 10803,
      "folder": 19622,
      "provost": 18523,
      "compromise": 12014,
      "##pathic": 25940,
      "cf": 12935,
      "grading": 26886,
      "cbn": 21824,
      "##gr": 16523,
      "highlights": 11637,
      "praises": 27128,
      "jerusalem": 6744,
      "ultraviolet": 26299,
      "trunks": 20509,
      "##ap": 9331,
      "ས": 1436,
      "neighboring": 8581,
      "lgbt": 12010,
      "##hn": 7295,
      "search": 3945,
      "reigned": 21236,
      "gen": 8991,
      "genealogical": 29606,
      "saturn": 14784,
      "boiling": 16018,
      "1755": 21417,
      "##岡": 30358,
      "listed": 3205,
      "azerbaijan": 8365,
      "heinz": 17655,
      "meyer": 11527,
      "magistrates": 23007,
      "##bery": 22509,
      "opposed": 4941,
      "fatima": 27596,
      "##ty": 3723,
      "crete": 19111,
      "hezbollah": 25713,
      "##hly": 27732,
      "futile": 24495,
      "##vas": 12044,
      "##genic": 16505,
      "hampshire": 7035,
      "tradition": 4535,
      "demeanor": 21745,
      "convicts": 24948,
      "cock": 10338,
      "inspired": 4427,
      "heinrich": 10952,
      "gradually": 6360,
      "##բ": 29767,
      "nay": 29349,
      "122": 13092,
      "analyze": 17908,
      "[unused870]": 875,
      "[unused564]": 569,
      "articulated": 20742,
      "emphasize": 17902,
      "banished": 21319,
      "wei": 11417,
      "alam": 26234,
      "east": 2264,
      "successors": 18530,
      "tags": 22073,
      "eduard": 20424,
      "slug": 23667,
      "listings": 26213,
      "appoint": 16823,
      "[unused449]": 454,
      "[unused655]": 660,
      "cree": 27831,
      "maneuver": 17519,
      "replied": 3880,
      "evicted": 25777,
      "hampstead": 29557,
      "##ppa": 13944,
      "ripe": 22503,
      "investigated": 10847,
      "academie": 19669,
      "##ivate": 21466,
      "195": 17317,
      "vectors": 19019,
      "##14": 16932,
      "##56": 26976,
      "wool": 12121,
      "iss": 26354,
      "iucn": 20333,
      "##男": 30438,
      "[unused892]": 897,
      "tenant": 16713,
      "updated": 7172,
      "business": 2449,
      "##fl": 10258,
      "[unused950]": 955,
      "cinema": 5988,
      "##orne": 23846,
      "rents": 28206,
      "anatomical": 28141,
      "sunday": 4465,
      "trilogy": 11544,
      "configured": 26928,
      "##ador": 26467,
      "sparrow": 19479,
      "##hore": 16892,
      "[unused548]": 553,
      "##ट": 29856,
      "operates": 5748,
      "wrap": 10236,
      "[unused720]": 725,
      "rival": 6538,
      "ひ": 1673,
      "airports": 13586,
      "fantasies": 21233,
      "asleep": 6680,
      "##cino": 21081,
      "institution": 5145,
      "without": 2302,
      "geometry": 10988,
      "commence": 22825,
      "[unused188]": 193,
      "denoted": 19537,
      "antrim": 24142,
      "gaze": 3657,
      "woodward": 19133,
      "liberia": 18039,
      "tau": 19982,
      "snowy": 20981,
      "defendant": 13474,
      "restored": 5854,
      "swan": 10677,
      "relativity": 20805,
      "sheila": 15062,
      "elvis": 12280,
      "cambrian": 29228,
      "widely": 4235,
      "##ey": 3240,
      "##vie": 13469,
      "blackwell": 18776,
      "argus": 25294,
      "##stone": 9221,
      "surgeons": 16804,
      "aeronautical": 25010,
      "示": 1923,
      "##fying": 14116,
      "[UNK]": 100,
      "option": 5724,
      "##twined": 21077,
      "measure": 5468,
      "pedestrians": 24946,
      "clip": 12528,
      "##bians": 26376,
      "mortar": 14335,
      "1970s": 3955,
      "keynes": 22152,
      "tempted": 16312,
      "yamaha": 24031,
      "##tip": 25101,
      "eighteenth": 12965,
      "room": 2282,
      "manages": 9020,
      "eliot": 16292,
      "##kel": 11705,
      "holt": 12621,
      "ق": 1292,
      "pointe": 26119,
      "arrival": 5508,
      "floated": 13715,
      "##·": 29661,
      "payton": 28666,
      "etc": 4385,
      "movie": 3185,
      "storing": 23977,
      "aiden": 15086,
      "##asse": 27241,
      "inference": 28937,
      "bowen": 16208,
      "translit": 28468,
      "stables": 16232,
      "##baum": 14898,
      "法": 1901,
      "wheeling": 29142,
      "scientific": 4045,
      "ying": 20879,
      "free": 2489,
      "experts": 8519,
      "waltz": 17569,
      "##26": 23833,
      "##lim": 17960,
      "[unused305]": 310,
      "mccoy": 16075,
      "obama": 8112,
      "##dication": 25027,
      "conceptual": 17158,
      "cochran": 28506,
      "winery": 23910,
      "caliphate": 28034,
      "gunfire": 16978,
      "##icides": 22698,
      "airbus": 20901,
      "##rz": 15378,
      "##xa": 18684,
      "##lary": 28221,
      "1704": 27769,
      "##mberg": 29084,
      "[unused855]": 860,
      "##ji": 4478,
      "cast": 3459,
      "anal": 20302,
      "lumber": 13891,
      "ל": 1253,
      "dropped": 3333,
      "[unused179]": 184,
      "##lized": 28931,
      "##se": 3366,
      "smack": 21526,
      "cookie": 17387,
      "##kali": 28613,
      "glands": 23340,
      "surprised": 4527,
      "oleg": 25841,
      "exit": 6164,
      "##100": 18613,
      "seasoned": 28223,
      "neville": 14871,
      "communist": 4750,
      "scorer": 10835,
      "transcription": 14193,
      "diana": 8805,
      "briefing": 27918,
      "cowan": 25752,
      "sep": 19802,
      "##sic": 19570,
      "threshold": 11207,
      "sewer": 22365,
      "##ounded": 26240,
      "##¡": 29644,
      "gunners": 29000,
      "guerrilla": 15722,
      "rabbi": 7907,
      "kato": 27496,
      "leukemia": 25468,
      "cards": 5329,
      "bumper": 21519,
      "insect": 14211,
      "[unused40]": 41,
      "##cope": 16186,
      "##ston": 7106,
      "avalanche": 18846,
      "##astic": 20875,
      "compressor": 29329,
      "release": 2713,
      "gasps": 23813,
      "##tu": 8525,
      "##oo": 9541,
      "raises": 13275,
      "supportive": 16408,
      "chase": 5252,
      "essence": 11305,
      "nathan": 7150,
      "table": 2795,
      "sven": 21313,
      "roe": 20944,
      "statements": 8635,
      "view": 3193,
      "estonia": 10692,
      "blindness": 26290,
      "maneuvers": 23802,
      "avila": 29079,
      "arroyo": 23882,
      "##ז": 29793,
      "evangelical": 11295,
      "##eche": 27635,
      "[unused343]": 348,
      "##tes": 4570,
      "257": 24368,
      "selma": 28112,
      "any": 2151,
      "substitutes": 29200,
      "##39": 23499,
      "moroccan": 17494,
      "lowering": 13845,
      "[unused364]": 369,
      "lang": 11374,
      "folklore": 13104,
      "##bruck": 28985,
      "experiencing": 13417,
      "accompanying": 10860,
      "story": 2466,
      "gland": 25320,
      "oven": 17428,
      "246": 22376,
      "gig": 15453,
      "torah": 16297,
      "mastery": 26364,
      "bruised": 18618,
      "rays": 9938,
      "outraged": 23558,
      "brook": 9566,
      "parting": 20254,
      "ා": 1408,
      "355": 26271,
      "majesty": 9995,
      "1953": 4052,
      "solidarity": 14657,
      "1880": 6756,
      "krishna": 10871,
      "provence": 19923,
      "lava": 13697,
      "##つ": 30190,
      "intervals": 14025,
      "307": 24559,
      "##τ": 29734,
      "rann": 26312,
      "##fp": 22540,
      "##rada": 28510,
      "amber": 8994,
      "sainte": 16947,
      "cooke": 16546,
      "##hyllum": 27750,
      "一": 1740,
      "[unused265]": 270,
      "evolved": 7964,
      "ponder": 29211,
      "chatting": 22331,
      "din": 11586,
      "##heater": 27847,
      "lacked": 10858,
      "gdp": 14230,
      "douglass": 27485,
      "[unused634]": 639,
      "dar": 18243,
      "prussia": 10724,
      "##avi": 18891,
      "ನ": 1400,
      "pear": 28253,
      "maud": 21696,
      "catching": 9105,
      "flats": 14201,
      "polished": 12853,
      "pump": 10216,
      "##nism": 28113,
      "future": 2925,
      "titanium": 23431,
      "##ell": 5349,
      "obeyed": 22665,
      "charles": 2798,
      "federation": 4657,
      "stokes": 18716,
      "##one": 5643,
      "skipped": 16791,
      "##das": 8883,
      "kindness": 16056,
      "rink": 18416,
      "surprise": 4474,
      "tea": 5572,
      "anzac": 29224,
      "##it": 4183,
      "[unused750]": 755,
      "flanking": 24958,
      "larkin": 25570,
      "pr": 10975,
      "castle": 3317,
      "950": 20317,
      "shortened": 12641,
      "1772": 17483,
      "roll": 4897,
      "##acion": 21736,
      "##marks": 27373,
      "hollow": 8892,
      "hallway": 6797,
      "ʀ": 1127,
      "##ginal": 24965,
      "slump": 28702,
      "moose": 17716,
      "homosexual": 15667,
      "##.": 29625,
      "bartlett": 20081,
      "sloppy": 28810,
      "privateer": 26790,
      "##aja": 22734,
      "jing": 21536,
      "sudden": 5573,
      "##edly": 26207,
      "[unused193]": 198,
      "sales": 4341,
      "zhang": 9327,
      "awarded": 3018,
      "bourbon": 15477,
      "generals": 11593,
      "socio": 17522,
      "endeavour": 26911,
      "fictional": 7214,
      "##5": 2629,
      "downloads": 22956,
      "inaugurated": 11070,
      "aggregation": 28041,
      "ᅦ": 1473,
      "dismounted": 29580,
      "occupational": 16928,
      "arbitration": 18010,
      "boards": 7923,
      "unfinished": 14342,
      "##cence": 29320,
      "deported": 17929,
      "dive": 11529,
      "mechanisms": 10595,
      "##pe": 5051,
      "##grade": 24170,
      "administered": 8564,
      "unexpected": 9223,
      "##ouin": 25058,
      "mathematician": 13235,
      "##berries": 20968,
      "##hit": 16584,
      "ladder": 10535,
      "[unused112]": 117,
      "butcher": 14998,
      "marker": 12115,
      "simmons": 13672,
      "##isto": 20483,
      "amalgamated": 17143,
      "empathy": 26452,
      "##erus": 21608,
      "##icular": 21412,
      "dig": 10667,
      "expert": 6739,
      "faux": 29276,
      "succession": 8338,
      "##ٹ": 29838,
      "based": 2241,
      "##slin": 22908,
      "convention": 4680,
      "strengthening": 16003,
      "santiago": 8728,
      "luke": 5355,
      "bra": 11655,
      "##typical": 27086,
      "##ako": 20411,
      "cortes": 22242,
      "innsbruck": 28914,
      "bombardier": 29143,
      "##ე": 29978,
      "##erman": 18689,
      "infancy": 22813,
      "nodding": 11863,
      "‰": 1530,
      "jun": 12022,
      "smirked": 18775,
      "[unused591]": 596,
      "[unused499]": 504,
      "baseline": 26163,
      "fleetwood": 23866,
      "313": 22997,
      "co₂": 20190,
      "kaye": 23686,
      "ada": 15262,
      "josie": 15293,
      "obstacles": 15314,
      "1746": 24507,
      "horror": 5469,
      "circulated": 17640,
      "explosive": 11355,
      "wolverhampton": 20085,
      "[unused885]": 890,
      "flies": 10029,
      "415": 24690,
      "decorations": 14529,
      "sooner": 10076,
      "guess": 3984,
      "sobbing": 20040,
      "##ன": 29923,
      "գ": 1221,
      "##eville": 21187,
      "archie": 13255,
      "quietly": 5168,
      "perpetrators": 27675,
      "294": 28135,
      "shankar": 17429,
      "dani": 19522,
      "electrons": 15057,
      "[unused991]": 996,
      "cancer": 4456,
      "writes": 7009,
      "神": 1925,
      "longer": 2936,
      "kw": 6448,
      "donors": 17843,
      "invitations": 29492,
      "carlton": 12989,
      "##aran": 20486,
      "genesis": 11046,
      "##,": 29623,
      "judaism": 13725,
      "##all": 8095,
      "filmmakers": 16587,
      "heart": 2540,
      "inquisition": 24638,
      "cass": 16220,
      "##tov": 26525,
      "dodged": 28339,
      "whispers": 11054,
      "travis": 10001,
      "link": 4957,
      "peter": 2848,
      "microphone": 15545,
      "outreach": 15641,
      "##bner": 29388,
      "##bles": 13510,
      "deteriorating": 28440,
      "##ika": 7556,
      "negotiations": 7776,
      "emilia": 20417,
      "rather": 2738,
      "sharon": 10666,
      "animated": 6579,
      "roxy": 23682,
      "њ": 1216,
      "##ungen": 23239,
      "grace": 4519,
      "##ड": 29857,
      "bases": 7888,
      "##eli": 20806,
      "affiliates": 18460,
      "##ان": 18511,
      "awkwardly": 18822,
      "quest": 8795,
      "##ault": 23505,
      "tuba": 29242,
      "ں": 1306,
      "standings": 11869,
      "doris": 15467,
      "vendors": 17088,
      "parents": 3008,
      "anglican": 9437,
      "neighborhoods": 11681,
      "gasping": 17054,
      "ₗ": 1566,
      "terms": 3408,
      "loyalty": 9721,
      "small": 2235,
      "[unused108]": 113,
      "kant": 26044,
      "sap": 20066,
      "##dah": 18417,
      "confederate": 8055,
      "##থ": 29899,
      "itf": 27682,
      "##rwood": 20941,
      "##hs": 7898,
      "enigma": 26757,
      "attractions": 13051,
      "guarantees": 21586,
      "averages": 20185,
      "hating": 22650,
      "puppets": 26101,
      "##28": 22407,
      "##lase": 25002,
      "ware": 16283,
      "##igan": 10762,
      "##tment": 21181,
      "biceps": 27947,
      "coefficient": 19064,
      "priscilla": 25193,
      "instructions": 8128,
      "patel": 20455,
      "greer": 25939,
      "accident": 4926,
      "resigning": 24642,
      "##bbon": 27684,
      "motioned": 13054,
      "narrowly": 11866,
      "##hiro": 18334,
      "pga": 14198,
      "solely": 9578,
      "outrageous": 25506,
      "southwest": 4943,
      "being": 2108,
      "reinstated": 18671,
      "##bourne": 11634,
      "poses": 22382,
      "subscription": 15002,
      "##ས": 29972,
      "ω": 1179,
      "##drich": 23335,
      "huey": 29503,
      "##wheel": 22920,
      "disputes": 11936,
      "[unused539]": 544,
      "13th": 6122,
      "misconduct": 23337,
      "competition": 2971,
      "civilizations": 24784,
      "##tick": 26348,
      "monumental": 15447,
      "synonym": 10675,
      "1766": 21410,
      "organizes": 22013,
      "##uddin": 17375,
      "doctorate": 8972,
      "expenditures": 22697,
      "mcdonald": 9383,
      "mountainous": 14897,
      "scenes": 5019,
      "fences": 21549,
      "interim": 9455,
      "##ŋ": 29673,
      "dark": 2601,
      "sandy": 7525,
      "pulitzer": 17618,
      "sociological": 24846,
      "matrices": 21520,
      "www": 7479,
      "innovations": 15463,
      "##ability": 8010,
      "equivalent": 5662,
      "[unused479]": 484,
      "289": 27054,
      "[unused593]": 598,
      "babies": 10834,
      "defend": 6985,
      "donovan": 12729,
      "lillian": 19344,
      "enrico": 21982,
      "amelie": 25285,
      "coincidence": 16507,
      "coveted": 28821,
      "##nx": 26807,
      "[unused403]": 408,
      "##tative": 27453,
      "capture": 5425,
      "quota": 20563,
      "1720": 23535,
      "dec": 11703,
      "sarajevo": 18354,
      "suspended": 6731,
      "1713": 27016,
      "##avian": 21654,
      "hugh": 6621,
      "repeated": 5567,
      "cereal": 20943,
      "agreement": 3820,
      "##chus": 16194,
      "##ร": 29953,
      "butt": 10007,
      "##laus": 28128,
      "mocked": 24195,
      "currently": 2747,
      "nail": 13774,
      "fatal": 10611,
      "mini": 7163,
      "slots": 19832,
      "winner": 3453,
      "theoretically": 22634,
      "##দ": 29900,
      "distinctions": 25995,
      "craftsmen": 25736,
      "##minating": 27932,
      "##bahn": 16052,
      "sargent": 27599,
      "##obe": 20891,
      "transmitting": 23820,
      "assign": 23911,
      "screams": 11652,
      "palatinate": 18990,
      "abc": 5925,
      "high": 2152,
      "##ination": 12758,
      "blend": 12586,
      "tucson": 17478,
      "interest": 3037,
      "shriek": 24795,
      "frenchman": 26529,
      "spurs": 18205,
      "moment": 2617,
      "pius": 14363,
      "grassroots": 23299,
      "bought": 4149,
      "reflected": 7686,
      "##burgh": 15496,
      "cardiovascular": 22935,
      "batman": 8942,
      "abruptly": 9225,
      "##vs": 15088,
      "yugoslavia": 8936,
      "amnesty": 16154,
      "##ano": 6761,
      "neared": 20832,
      "ndp": 21915,
      "46": 4805,
      "forthcoming": 16875,
      "##media": 16969,
      "pomeranian": 17717,
      "millennium": 10144,
      "ce": 8292,
      "##vani": 27760,
      "limestone": 9771,
      "muslim": 5152,
      "[unused859]": 864,
      "slung": 20078,
      "##dun": 27584,
      "cai": 29080,
      "theaters": 12370,
      "##mine": 11233,
      "mosaic": 16061,
      "1652": 28853,
      "met": 2777,
      "##ก": 29945,
      "wholly": 12590,
      "[unused553]": 558,
      "##ows": 15568,
      "sloping": 24724,
      "werewolves": 18306,
      "boeing": 10321,
      "copper": 6967,
      "valley": 3028,
      "risks": 10831,
      "leonid": 27316,
      "##omo": 19506,
      "[unused209]": 214,
      "##ander": 12243,
      "generating": 11717,
      "latvian": 14698,
      "commitment": 8426,
      "psalm": 22728,
      "£10": 26812,
      "nbc": 6788,
      "agencies": 6736,
      "mckay": 16225,
      "genes": 9165,
      "##town": 4665,
      "##ricted": 20623,
      "mclaughlin": 23720,
      "versailles": 18346,
      "##ང": 29963,
      "cigarettes": 15001,
      "4th": 4343,
      "condemn": 28887,
      "##pies": 13046,
      "automated": 12978,
      "##iers": 10136,
      "preston": 8475,
      "##rly": 21194,
      "scandal": 9446,
      "##ذ": 29822,
      "battle": 2645,
      "implications": 13494,
      "[unused451]": 456,
      "divine": 7746,
      "sorting": 22210,
      "daddy": 8600,
      "scenery": 17363,
      "##shin": 17426,
      "enlightenment": 16724,
      "bros": 10243,
      "[unused680]": 685,
      "kingdom": 2983,
      "punk": 7196,
      "pound": 9044,
      "herself": 2841,
      "##ssi": 18719,
      "employer": 11194,
      "stack": 9991,
      "##ץ": 29808,
      "protection": 3860,
      "terry": 6609,
      "##kushima": 24917,
      "1799": 13839,
      "sawmill": 24744,
      "##sus": 13203,
      "transporting": 18276,
      "doesn": 2987,
      "deciduous": 22411,
      "ohio": 4058,
      "torque": 15894,
      "defense": 3639,
      "slab": 17584,
      "simulated": 23599,
      "##nami": 28987,
      "tails": 17448,
      "##治": 30426,
      "preserves": 18536,
      "artifacts": 10471,
      "hereditary": 14800,
      "delegate": 11849,
      "disregard": 27770,
      "horsepower": 15149,
      "sofa": 10682,
      "replacing": 6419,
      "##aux": 13754,
      "generates": 19421,
      "volley": 28073,
      "aback": 26575,
      "rahman": 14364,
      "prima": 21111,
      "clenching": 23970,
      "##year": 29100,
      "unexpectedly": 14153,
      "loyal": 8884,
      "smoke": 5610,
      "cease": 13236,
      "##nction": 27989,
      "southward": 22161,
      "yahoo": 20643,
      "caste": 14542,
      "##aker": 22626,
      "nature": 3267,
      "##η": 24824,
      "feud": 13552,
      "nevada": 7756,
      "flourish": 24299,
      "##宇": 30345,
      "recalls": 17722,
      "##fleet": 27657,
      "tierney": 26198,
      "ipad": 25249,
      "validation": 27354,
      "golfer": 20601,
      "##iver": 16402,
      "despised": 26626,
      "unsuitable": 25622,
      "[unused595]": 600,
      "nintendo": 10022,
      "seafood": 23621,
      "##€": 30102,
      "grant": 3946,
      "##llie": 23697,
      "##ggles": 24989,
      "modelling": 19518,
      "multiplied": 28608,
      "currents": 14731,
      "dwell": 23120,
      "tang": 9745,
      "curls": 14484,
      "##board": 6277,
      "told": 2409,
      "faint": 8143,
      "clean": 4550,
      "##nch": 12680,
      "##mu": 12274,
      "[unused746]": 751,
      "domestic": 4968,
      "haunting": 20161,
      "##ement": 13665,
      "contend": 27481,
      "germany": 2762,
      "boasted": 23390,
      "scary": 12459,
      "counterparts": 14562,
      "##dia": 9032,
      "attained": 12754,
      "wally": 18202,
      "percent": 3867,
      "serviced": 22858,
      "denim": 26762,
      "enclosed": 10837,
      "polling": 17888,
      "##gled": 11533,
      "gracefully": 28266,
      "##mini": 25300,
      "townspeople": 27938,
      "lagos": 16738,
      "##}": 29642,
      "auburn": 12704,
      "demise": 13614,
      "asking": 4851,
      "prone": 13047,
      "##ध": 29862,
      "personalities": 12857,
      "hoping": 5327,
      "rumbling": 26670,
      "perspectives": 15251,
      "tracked": 12808,
      "jem": 24193,
      "displayed": 6913,
      "abd": 19935,
      "varsity": 11710,
      "hammer": 8691,
      "sensual": 18753,
      "allocated": 11095,
      "jung": 11810,
      "geschichte": 28299,
      "derived": 5173,
      "policy": 3343,
      "marion": 10115,
      "itv": 11858,
      "custer": 28888,
      "tract": 12859,
      "mary": 2984,
      "routing": 16972,
      "advising": 23875,
      "paranoid": 19810,
      "##mmy": 18879,
      "gag": 18201,
      "delaying": 29391,
      "crashing": 12894,
      "##tila": 26065,
      "##ford": 3877,
      "paulo": 9094,
      "##ifice": 23664,
      "richmond": 6713,
      "[unused775]": 780,
      "latham": 28737,
      "honolulu": 16598,
      "painful": 9145,
      "jozef": 23258,
      "ignited": 22395,
      "marko": 28003,
      "kanye": 29270,
      "vicki": 25424,
      "unison": 18732,
      "sample": 7099,
      "fey": 23864,
      "laugh": 4756,
      "ds": 16233,
      "♥": 1625,
      "1688": 24082,
      "pull": 4139,
      "silesian": 20453,
      "##ifier": 18095,
      "clement": 12223,
      "##gata": 26589,
      "copa": 10613,
      "版": 1907,
      "石": 1922,
      "abundance": 14531,
      "beds": 9705,
      "alton": 26374,
      "gentry": 20262,
      "dexter": 14375,
      "tung": 27079,
      "##bate": 20179,
      "1949": 4085,
      "commander": 3474,
      "entrances": 18084,
      "jax": 13118,
      "1897": 6347,
      "readers": 8141,
      "programmers": 28547,
      "##rdo": 20683,
      "raul": 16720,
      "new": 2047,
      "pba": 21563,
      "formerly": 3839,
      "mesopotamia": 25889,
      "shielded": 25474,
      "pools": 12679,
      "##ato": 10610,
      "podcast": 16110,
      "faso": 22773,
      "dodge": 11898,
      "warfare": 8309,
      "footprints": 24629,
      "ascended": 19644,
      "al": 2632,
      "plaid": 26488,
      "wasp": 19411,
      "lazarus": 23623,
      "##ums": 18163,
      "meantime": 12507,
      "heaven": 6014,
      "explain": 4863,
      "goodman": 14514,
      "##出": 30300,
      "extra": 4469,
      "chefs": 27828,
      "athena": 21880,
      "##ham": 3511,
      "rower": 21984,
      "disorders": 10840,
      "decent": 11519,
      "decisions": 6567,
      "printer": 15041,
      "##pping": 14853,
      "intercity": 20651,
      "orgasm": 13892,
      "ignore": 8568,
      "handing": 13041,
      "や": 1682,
      "geared": 23636,
      "maid": 10850,
      "amendment": 7450,
      "lynne": 26938,
      "##con": 8663,
      "velocity": 10146,
      "ministerial": 18645,
      "commandant": 15254,
      "[unused444]": 449,
      "terrorist": 9452,
      "reputed": 22353,
      "]": 1033,
      "lina": 27022,
      "##ater": 24932,
      "isolate": 27152,
      "sunderland": 15518,
      "conservative": 4603,
      "retailer": 20196,
      "ᵐ": 1502,
      "tolerate": 19242,
      "##pac": 19498,
      "carson": 9806,
      "surprises": 20096,
      "lesley": 23920,
      "obtain": 6855,
      "[unused765]": 770,
      "octagonal": 22340,
      "singing": 4823,
      "fleeing": 14070,
      "hat": 6045,
      "acclaimed": 10251,
      "explanations": 17959,
      "##的": 30442,
      "thrust": 7400,
      "##free": 23301,
      "cuban": 9642,
      "johor": 25268,
      "canal": 5033,
      "allah": 16455,
      "gathering": 7215,
      "##ghton": 21763,
      "##pped": 11469,
      "##kic": 29493,
      "##gui": 25698,
      "musique": 25784,
      "rebelled": 25183,
      "middlesbrough": 21655,
      "spouse": 18591,
      "王": 1909,
      "panzer": 16946,
      "speculation": 12143,
      "[unused915]": 920,
      "rap": 9680,
      "կ": 1227,
      "cylinders": 18729,
      "60th": 20928,
      "tangent": 27250,
      "##sper": 17668,
      "sophomore": 13758,
      "attend": 5463,
      "conquest": 9187,
      "vulnerability": 18130,
      "##zers": 16750,
      "northampton": 15944,
      "⁻": 1545,
      "saxe": 24937,
      "phillips": 8109,
      "arenas": 26434,
      "neutral": 8699,
      "reggae": 15662,
      "gothenburg": 22836,
      "declares": 18806,
      "weapons": 4255,
      "provider": 10802,
      "rudd": 25298,
      "exploit": 18077,
      "wagon": 9540,
      "南": 1785,
      "vikings": 13468,
      "##iana": 11410,
      "thai": 7273,
      "tor": 17153,
      "metre": 7924,
      "↔": 1587,
      "##now": 19779,
      "stake": 8406,
      "ン": 1737,
      "[unused909]": 914,
      "##ович": 16198,
      "accommodations": 26167,
      "պ": 1233,
      "viral": 13434,
      "child": 2775,
      "道": 1957,
      "thieves": 15862,
      "adultery": 29169,
      "263": 25246,
      "galaxies": 21706,
      "assignment": 8775,
      "killing": 4288,
      "gustavo": 24801,
      "##め": 30206,
      "disastrous": 16775,
      "shoes": 6007,
      "##eric": 22420,
      "englishman": 25244,
      "##uba": 19761,
      "compartment": 15273,
      "somehow": 5064,
      "##lity": 18605,
      "##ago": 23692,
      "joel": 8963,
      "cooled": 12981,
      "prohibited": 10890,
      "metabolism": 18089,
      "initials": 20381,
      "さ": 1656,
      "thistle": 24328,
      "html": 16129,
      "##be": 4783,
      "##cting": 11873,
      "barking": 19372,
      "lucrative": 21115,
      "##ellant": 24178,
      "[unused353]": 358,
      "disbanded": 8532,
      "hook": 8103,
      "accompanied": 5642,
      "[unused150]": 155,
      "北": 1781,
      "far": 2521,
      "swallows": 26436,
      "pip": 28315,
      "routed": 19578,
      "##ond": 15422,
      "zeppelin": 22116,
      "扌": 1859,
      "guaranteed": 12361,
      "av": 20704,
      "ordinary": 6623,
      "thirsty": 24907,
      "slide": 7358,
      "research": 2470,
      "white": 2317,
      "##ology": 6779,
      "breaker": 24733,
      "abbey": 6103,
      "##ayo": 28852,
      "##star": 14117,
      "##85": 27531,
      "mai": 14736,
      "サ": 1705,
      "statues": 11342,
      "##anus": 20849,
      "nitrogen": 14114,
      "##db": 18939,
      "freshwater": 12573,
      "herd": 14906,
      "journalism": 8083,
      "##ches": 8376,
      "holders": 13304,
      "[unused890]": 895,
      "air": 2250,
      "languages": 4155,
      "##nos": 15460,
      "bankruptcy": 10528,
      "breakthrough": 12687,
      "charlotte": 5904,
      "brains": 14332,
      "paternal": 15112,
      "portugal": 5978,
      "printed": 6267,
      "[unused67]": 68,
      "##nde": 13629,
      "1609": 28058,
      "laundering": 28289,
      "mallory": 20468,
      "comfort": 7216,
      "travers": 29053,
      "travel": 3604,
      "1875": 7466,
      "##amina": 27651,
      "become": 2468,
      "[unused283]": 288,
      "##rney": 27114,
      "定": 1822,
      "exchange": 3863,
      "spoil": 27594,
      "encompass": 25281,
      "buster": 18396,
      "##rb": 15185,
      "##cloth": 23095,
      "transport": 3665,
      "##some": 14045,
      "jewelry": 11912,
      "underneath": 7650,
      "reassigned": 18026,
      "queue": 24240,
      "resisted": 13335,
      "suggestion": 10293,
      "compensation": 9430,
      "injustice": 21321,
      "f": 1042,
      "frozen": 7708,
      "bonuses": 29563,
      "rendering": 14259,
      "owed": 12232,
      "##ə": 29681,
      "113": 12104,
      "shelter": 7713,
      "resource": 7692,
      "mma": 21021,
      "garage": 7381,
      "leslie": 8886,
      "hem": 19610,
      "ヒ": 1719,
      "solar": 5943,
      "ge": 16216,
      "illegal": 6206,
      "[unused477]": 482,
      "founded": 2631,
      "mines": 7134,
      "1560": 29185,
      "elk": 18995,
      "spells": 11750,
      "##aging": 16594,
      "##ddled": 28090,
      "##kow": 24144,
      "##open": 26915,
      "giuseppe": 12574,
      "##gue": 9077,
      "compelled": 15055,
      "weimar": 20695,
      "cartridges": 22998,
      "hasn": 8440,
      "current": 2783,
      "sets": 4520,
      "aquatic": 13582,
      "##ulio": 24825,
      "drive": 3298,
      "##ᵉ": 30035,
      "fanny": 17813,
      "spiked": 25362,
      "plaster": 15673,
      "cheryl": 19431,
      "rutland": 27780,
      "##政": 30386,
      "drummer": 7101,
      "grossing": 18244,
      "prototype": 8773,
      "##bf": 29292,
      "[unused783]": 788,
      "deciding": 10561,
      "boxer": 10423,
      "qc": 25196,
      "[unused232]": 237,
      "sponsor": 10460,
      "half": 2431,
      "dominic": 11282,
      "elders": 13376,
      "layer": 6741,
      "grandfather": 5615,
      "paisley": 23321,
      "##rna": 12789,
      "shakespeare": 8101,
      "[unused74]": 75,
      "semiconductor": 20681,
      "##lusion": 24117,
      "rouen": 27030,
      "##lift": 18412,
      "carts": 25568,
      "sipping": 24747,
      "vanessa": 13226,
      "mcintyre": 24564,
      "[unused415]": 420,
      "convinces": 19480,
      "praying": 14488,
      "##eding": 17819,
      "walled": 17692,
      "plotted": 27347,
      "turnbull": 26439,
      "##nding": 15683,
      "fragrance": 24980,
      "inclined": 13050,
      "[unused46]": 47,
      "maxi": 21510,
      "course": 2607,
      "tubular": 25147,
      "jules": 11044,
      "##inae": 16414,
      "##ump": 24237,
      "##oes": 22504,
      "[unused434]": 439,
      "##tica": 22723,
      "imposing": 16625,
      "glued": 22805,
      "stud": 16054,
      "##0s": 16223,
      "ة": 1272,
      "involuntary": 26097,
      "passion": 6896,
      "argentine": 8511,
      "musicians": 5389,
      "oxygen": 7722,
      "removes": 20362,
      "struggle": 5998,
      "—": 1517,
      "andover": 29463,
      "capita": 8353,
      "demonstration": 10467,
      "ordained": 9492,
      "##cia": 7405,
      "blanco": 20036,
      "filling": 8110,
      "inevitably": 21268,
      "farmer": 7500,
      "adapt": 15581,
      "moved": 2333,
      "hounds": 27772,
      "midway": 12213,
      "fen": 21713,
      "##ars": 11650,
      "1973": 3381,
      "registry": 15584,
      "comply": 14037,
      "ross": 5811,
      "confession": 12633,
      "downward": 14047,
      "marsh": 9409,
      "bessie": 29298,
      "##cca": 16665,
      "##uj": 23049,
      "willing": 5627,
      "parcel": 20463,
      "expected": 3517,
      "symbolism": 22050,
      "football": 2374,
      "ა": 1438,
      "granting": 15080,
      "rodents": 28156,
      "##oue": 27872,
      "##も": 30207,
      "accustomed": 17730,
      "##oured": 16777,
      "pursed": 21954,
      "##！": 30512,
      "connect": 7532,
      "choices": 9804,
      "limp": 14401,
      "sell": 5271,
      "[unused14]": 15,
      "treacherous": 26648,
      "##og": 8649,
      "racers": 25791,
      "##elial": 24587,
      "receiver": 8393,
      "##tung": 21847,
      "[unused798]": 803,
      "maximum": 4555,
      "champions": 3966,
      "doncaster": 18895,
      "lime": 14123,
      "##phobic": 20200,
      "221": 19594,
      "##kti": 22462,
      "##lle": 6216,
      "ion": 10163,
      "##bon": 11735,
      "##eries": 28077,
      "exploded": 9913,
      "taxpayers": 26457,
      "##上": 30268,
      "##ε": 29723,
      "struggled": 6915,
      "bellevue": 26756,
      "narrator": 11185,
      "##ashi": 12914,
      "certificate": 8196,
      "tonic": 28157,
      "1892": 6527,
      "federico": 20493,
      "sparse": 20288,
      "##chia": 20881,
      "hatfield": 26853,
      "mostly": 3262,
      "frantically": 16460,
      "##late": 13806,
      "##tablished": 28146,
      "joaquin": 16877,
      "debris": 11385,
      "##peration": 29487,
      "tay": 28117,
      "ruse": 26307,
      "08": 5511,
      "##ה": 29128,
      "##⽥": 30160,
      "slated": 18517,
      "mohammed": 12619,
      "secretariat": 15128,
      "denounced": 17787,
      "expectation": 17626,
      "##aga": 16098,
      "##宀": 30344,
      "striker": 11854,
      "##ywood": 26985,
      "seamen": 28671,
      "■": 1617,
      "kapoor": 17129,
      "supplier": 17024,
      "glimpse": 12185,
      "creek": 3636,
      "flooded": 10361,
      "pill": 17357,
      "ط": 1286,
      "1859": 8165,
      "##ω": 29739,
      "chamberlain": 13904,
      "kitten": 18401,
      "organ": 5812,
      "moves": 5829,
      "[unused414]": 419,
      "catholicism": 16138,
      "nas": 17235,
      "imam": 17189,
      "observe": 11949,
      "hysteria": 29004,
      "##uance": 26620,
      "cricketer": 9490,
      "##ʾ": 29713,
      "similarly": 6660,
      "tudor": 15588,
      "conglomerate": 22453,
      "timber": 7227,
      "octopus": 24318,
      "penal": 18476,
      "ו": 1246,
      "streamed": 18498,
      "##⇄": 30117,
      "smackdown": 22120,
      "oclc": 12258,
      "gingerly": 26961,
      "mala": 28935,
      "iraqi": 8956,
      "belong": 7141,
      "ci": 25022,
      "modes": 11583,
      "displeasure": 28606,
      "面": 1976,
      "centro": 18120,
      "##isi": 17417,
      "arrays": 27448,
      "chorale": 26561,
      "fortunes": 18023,
      "temperature": 4860,
      "hearing": 4994,
      "demonstrators": 28337,
      "##car": 10010,
      "##su": 6342,
      "worse": 4788,
      "mcqueen": 29265,
      "[unused767]": 772,
      "charlie": 4918,
      "##oned": 17799,
      "canceled": 13261,
      "variations": 8358,
      "fungi": 15289,
      "micro": 12702,
      "##reen": 28029,
      "baden": 12189,
      "masovian": 23703,
      "branding": 16140,
      "vh1": 26365,
      "##¥": 29648,
      "garion": 12523,
      "medicare": 27615,
      "tablet": 13855,
      "cadets": 15724,
      "##བ": 29967,
      "##standing": 24911,
      "framing": 20241,
      "flop": 28583,
      "argyle": 26503,
      "closure": 8503,
      "vernon": 11447,
      "macedonia": 11492,
      "acid": 5648,
      "lau": 21360,
      "indoors": 24274,
      "##=": 29630,
      "##nare": 26148,
      "[unused465]": 470,
      "nods": 11232,
      "47th": 28243,
      "fulfillment": 29362,
      "centennial": 15483,
      "controversial": 6801,
      "attach": 22476,
      "synthetic": 12553,
      "##jure": 25243,
      "processors": 18017,
      "־": 1240,
      "ankles": 15392,
      "場": 1806,
      "##keeper": 13106,
      "[unused253]": 258,
      "starts": 4627,
      "##inatory": 28230,
      "benton": 18685,
      "scooted": 24289,
      "axial": 26819,
      "trace": 7637,
      "dean": 4670,
      "justine": 26377,
      "belize": 18867,
      "##lves": 20899,
      "nothin": 24218,
      "predictable": 21425,
      "##endez": 28787,
      "earlier": 3041,
      "mu": 14163,
      "##ques": 10997,
      "gameplay": 11247,
      "analogue": 21800,
      "observatory": 9970,
      "##makers": 12088,
      "winchester": 12841,
      "gazing": 16448,
      "metacritic": 14476,
      "adoption": 9886,
      "feral": 18993,
      "410": 19151,
      "scratching": 20291,
      "rai": 15547,
      "faintly": 18587,
      "feminist": 10469,
      "suggesting": 9104,
      "regulate": 15176,
      "##em": 6633,
      "slovenia": 10307,
      "ս": 1234,
      "yielding": 21336,
      "##ා": 29944,
      "mysteries": 15572,
      "things": 2477,
      "00pm": 27995,
      "signalling": 21919,
      "precision": 11718,
      "modified": 6310,
      "magician": 16669,
      "salzburg": 18369,
      "^": 1034,
      "hydra": 26018,
      "##mah": 25687,
      "##sler": 20590,
      "hardness": 23608,
      "clapping": 27104,
      "##dgets": 28682,
      "sql": 29296,
      "bundesliga": 14250,
      "agrees": 10217,
      "inexperienced": 26252,
      "wilder": 18463,
      "##imo": 16339,
      "salmon": 11840,
      "chasing": 11777,
      "calculating": 20177,
      "aw": 22091,
      "mm": 3461,
      "##alia": 22786,
      "convinced": 6427,
      "knitting": 26098,
      "##エ": 30224,
      "521": 26963,
      "afghan": 12632,
      "##lham": 25968,
      "[unused133]": 138,
      "##issa": 21205,
      "##lum": 12942,
      "mortals": 23844,
      "knowing": 4209,
      "pancakes": 28470,
      "violated": 14424,
      "myanmar": 12620,
      "##sir": 29481,
      "元": 1769,
      "##ո": 29779,
      "volcano": 12779,
      "dome": 8514,
      "bailey": 8925,
      "sometime": 8811,
      "v6": 25275,
      "nmi": 22484,
      "ring": 3614,
      "partnering": 27001,
      "##play": 13068,
      "verification": 22616,
      "hello": 7592,
      "cab": 9298,
      "planets": 11358,
      "dancer": 8033,
      "swing": 7370,
      "##rist": 15061,
      "[unused85]": 86,
      "proliferation": 20250,
      "routine": 9410,
      "id": 8909,
      "oceans": 17401,
      "reluctance": 21662,
      "[unused726]": 731,
      "284": 26871,
      "swelling": 18348,
      "snatch": 23365,
      "վ": 1235,
      "demanded": 6303,
      "leftist": 24247,
      "verity": 22178,
      "arias": 25905,
      "outright": 13848,
      "neck": 3300,
      "infamous": 14429,
      "##holding": 23410,
      "furnished": 19851,
      "further": 2582,
      "mikey": 25998,
      "arching": 27335,
      "nixon": 11296,
      "##rip": 29443,
      "sprawling": 24199,
      "##region": 23784,
      "##tern": 16451,
      "##nad": 25389,
      "worm": 15485,
      "antonio": 4980,
      "charms": 24044,
      "##wa": 4213,
      "勝": 1780,
      "marriage": 3510,
      "regan": 16964,
      "chiba": 27368,
      "bruno": 10391,
      "##tness": 27401,
      "[unused694]": 699,
      "##eus": 10600,
      "1642": 24061,
      "sv": 17917,
      "##net": 7159,
      "freed": 10650,
      "[unused257]": 262,
      "locate": 12453,
      "residing": 7154,
      "friend": 2767,
      "halle": 19769,
      "immunity": 15403,
      "tennessee": 5298,
      "angela": 10413,
      "aviation": 5734,
      "soy": 25176,
      "cannons": 17138,
      "captures": 19566,
      "betting": 19244,
      "group": 2177,
      "hall": 2534,
      "ᄒ": 1469,
      "doping": 23799,
      "zimmerman": 27946,
      "bolivian": 26075,
      "challenge": 4119,
      "stockport": 26284,
      "straining": 21366,
      "tna": 20108,
      "intervened": 21116,
      "sweetheart": 12074,
      "stubble": 26816,
      "niall": 21889,
      "##ier": 3771,
      "mom": 3566,
      "performed": 2864,
      "boredom": 29556,
      "low": 2659,
      "raiding": 23530,
      "keeps": 7906,
      "##lewood": 26580,
      "ou": 15068,
      "tariffs": 26269,
      "##tina": 13770,
      "##gc": 18195,
      "##isse": 23491,
      "##ags": 26454,
      "melinda": 23721,
      "lobbying": 19670,
      "corresponding": 7978,
      "predator": 15267,
      "foul": 12487,
      "matrix": 8185,
      "governmental": 10605,
      "guerre": 24613,
      "##terol": 27833,
      "ceramic": 14692,
      "##nam": 13129,
      "dev": 16475,
      "walsall": 29054,
      "helen": 6330,
      "perch": 21836,
      "lyons": 16642,
      "##仮": 30287,
      "charging": 13003,
      "fusion": 10077,
      "stood": 2768,
      "ю": 1209,
      "exposition": 13080,
      "norms": 17606,
      "##∗": 30125,
      "fragmentation": 28424,
      "suffer": 9015,
      "influential": 6383,
      "criticisms": 19628,
      "##hana": 15788,
      "cello": 10145,
      "方": 1863,
      "storage": 5527,
      "daly": 18509,
      "catering": 18640,
      "##-": 29624,
      "##oja": 22918,
      "##yre": 16363,
      "shiva": 12535,
      "##ₜ": 30099,
      "##uating": 24133,
      "transparent": 13338,
      "evacuation": 13982,
      "microscopy": 29105,
      "[unused351]": 356,
      "chancellor": 7306,
      "##扌": 30385,
      "va": 12436,
      "racist": 16939,
      "##vera": 26061,
      "[unused802]": 807,
      "caliph": 22733,
      "revolutions": 25239,
      "eccentric": 18080,
      "divides": 20487,
      "divided": 4055,
      "1789": 13739,
      "browne": 15005,
      "ea": 19413,
      "deceased": 10181,
      "ignacio": 22988,
      "scholarships": 15691,
      "symmetrical": 23476,
      "ろ": 1689,
      "##ears": 26492,
      "octave": 21817,
      "kelsey": 21004,
      "貝": 1952,
      "occupants": 18837,
      "mohan": 18529,
      "universally": 21186,
      "fares": 27092,
      "left": 2187,
      "eco": 17338,
      "##ᄑ": 30004,
      "explains": 7607,
      "flexibility": 16991,
      "##hony": 27629,
      "panicked": 16035,
      "order": 2344,
      "phrase": 7655,
      "contributors": 16884,
      "silesia": 21872,
      "relational": 28771,
      "##yana": 16811,
      "erect": 14908,
      "gerais": 29220,
      "##oso": 19137,
      "sharply": 9249,
      "stains": 27094,
      "ireland": 3163,
      "##mmon": 24521,
      "trophies": 22236,
      "tilting": 21788,
      "peanut": 21443,
      "kurdish": 15553,
      "completing": 7678,
      "1832": 10212,
      "presents": 7534,
      "reduced": 4359,
      "rails": 15168,
      "##ats": 11149,
      "sub": 4942,
      "peeled": 20956,
      "##ش": 29825,
      "triangular": 14023,
      "rendezvous": 20558,
      "み": 1678,
      "computation": 22334,
      "hangar": 18284,
      "##tle": 9286,
      "##氷": 30421,
      "bolshevik": 24477,
      "fisher": 8731,
      "erwin": 22209,
      "##ogy": 15707,
      "someday": 13834,
      "##区": 30308,
      "looks": 3504,
      "periodicals": 21855,
      "flutes": 28453,
      "border": 3675,
      "*": 1008,
      "[unused72]": 73,
      "soils": 13622,
      "##chman": 19944,
      "dummy": 24369,
      "formation": 4195,
      "did": 2106,
      "sy": 25353,
      "aberdeen": 12080,
      "##inski": 19880,
      "[unused70]": 71,
      "##ᅦ": 30009,
      "wanted": 2359,
      "jurisprudence": 24697,
      "stripped": 10040,
      "remodeled": 27170,
      "twilight": 13132,
      "##dine": 10672,
      "chan": 9212,
      "su": 10514,
      "jonathan": 5655,
      "##у": 29748,
      "abuse": 6905,
      "clarissa": 25260,
      "skinner": 17451,
      "ₐ": 1560,
      "accord": 15802,
      "beasts": 15109,
      "orphanage": 18504,
      "##・": 30264,
      "horseshoe": 23449,
      "→": 1585,
      "extensive": 4866,
      "nairobi": 21124,
      "##stand": 21515,
      "##havan": 24652,
      "ser": 14262,
      "reorganisation": 24934,
      "##isan": 29196,
      "##wad": 26016,
      "rashid": 22080,
      "incidence": 18949,
      "pavel": 18635,
      "objective": 7863,
      "##nt": 3372,
      "1982": 3196,
      "inspect": 22459,
      "##owed": 15096,
      "##bular": 28808,
      "[unused523]": 528,
      "##¶": 29660,
      "additive": 29167,
      "authorities": 4614,
      "md": 9108,
      "geometridae": 24687,
      "540": 20263,
      "ratification": 27369,
      "₀": 1547,
      "typed": 21189,
      "nightfall": 28018,
      "graduate": 4619,
      "##西": 30473,
      "##bill": 24457,
      "revered": 23886,
      "##jon": 14339,
      "##omy": 16940,
      "ducks": 14875,
      "nationale": 17360,
      "sing": 6170,
      "উ": 1350,
      "intensified": 15767,
      "jj": 29017,
      "disposition": 22137,
      "xvi": 16855,
      "association": 2523,
      "suppose": 6814,
      "ل": 1294,
      "gaston": 18572,
      "1a": 20720,
      "147": 16471,
      "lap": 5001,
      "beamed": 22587,
      "1728": 26833,
      "“": 1523,
      "messages": 7696,
      "foley": 17106,
      "γ": 1157,
      "##vil": 14762,
      "robinson": 6157,
      "decorative": 11584,
      "aspects": 5919,
      "norse": 15342,
      "daniela": 28541,
      "life": 2166,
      "decreased": 10548,
      "δ": 1158,
      "##dim": 22172,
      "marries": 19941,
      "doctrine": 8998,
      "collins": 6868,
      "ᵤ": 1509,
      "##watch": 18866,
      "##oud": 19224,
      "awesome": 12476,
      "##not": 17048,
      "notified": 19488,
      "declared": 4161,
      "ashok": 28916,
      "southwestern": 8772,
      "藤": 1944,
      "eyelids": 16544,
      "dallas": 5759,
      "disappointing": 15640,
      "##sque": 17729,
      "invariably": 26597,
      "bennett": 8076,
      "mer": 21442,
      "suggest": 6592,
      "##child": 19339,
      "##œ": 29674,
      "##out": 5833,
      "fully": 3929,
      "jackson": 4027,
      "##ulus": 11627,
      "community": 2451,
      "##otho": 29288,
      "russian": 2845,
      "[unused830]": 835,
      "horizon": 9154,
      "##ण": 29858,
      "[unused239]": 244,
      "describe": 6235,
      "##wala": 23877,
      "##wide": 22517,
      "##彳": 30371,
      "pathway": 12732,
      "mal": 15451,
      "expanding": 9186,
      "participates": 17257,
      "vu": 24728,
      "nicky": 20158,
      "greco": 18180,
      "watched": 3427,
      "superiors": 22983,
      "watkins": 17055,
      "regards": 12362,
      "bury": 11010,
      "roadway": 18799,
      "##umen": 27417,
      "pastoral": 13645,
      "ᄋ": 1463,
      "partisan": 14254,
      "fleeting": 25085,
      "selecting": 17739,
      "readiness": 19822,
      "grandson": 7631,
      "##cast": 10526,
      "89": 6486,
      "rice": 5785,
      "foreman": 18031,
      "arm": 2849,
      "##du": 8566,
      "schultz": 22378,
      "jolt": 22538,
      "##yuki": 19663,
      "real": 2613,
      "##logic": 27179,
      "ting": 28642,
      "mantra": 25951,
      "gradual": 16612,
      "borrow": 17781,
      "prohibits": 25822,
      "breach": 12510,
      "goose": 13020,
      "[unused884]": 889,
      "interpreting": 25455,
      "bedfordshire": 28430,
      "asserts": 19514,
      "earnings": 16565,
      "alba": 18255,
      "importance": 5197,
      "[unused210]": 215,
      "asthma": 26180,
      "holes": 8198,
      "commando": 15054,
      "##iface": 29164,
      "##ᄆ": 29995,
      "pneumonia": 18583,
      "hemingway": 27299,
      "heartbeat": 12251,
      "##gny": 19393,
      "mage": 17454,
      "##acker": 25418,
      "optic": 22816,
      "administratively": 23710,
      "recession": 19396,
      "269": 25717,
      "moldova": 16772,
      "atkinson": 18646,
      "##hdi": 22960,
      "##zel": 12638,
      "rich": 4138,
      "walkers": 22559,
      "log": 8833,
      "series": 2186,
      "##ryn": 18143,
      "sacramento": 11932,
      "intermediate": 7783,
      "churchill": 10888,
      "cantonese": 22241,
      "application": 4646,
      "hits": 4978,
      "containment": 29174,
      "merge": 13590,
      "identities": 15702,
      "offensive": 5805,
      "crude": 13587,
      "consuming": 15077,
      "encyclopedia": 12204,
      "[unused294]": 299,
      "continents": 17846,
      "programmes": 8497,
      "hyde": 11804,
      "diagnosed": 11441,
      "##pressive": 27484,
      "twin": 5519,
      "##ute": 10421,
      "shrubs": 18812,
      "endless": 10866,
      "cannot": 3685,
      "tia": 27339,
      "sherwood": 19427,
      "marilyn": 14749,
      "depart": 18280,
      "condoms": 29094,
      "prestigious": 8919,
      "clear": 3154,
      "##mmer": 15810,
      "##vinsky": 27704,
      "maritime": 7803,
      "tabloid": 24173,
      "benefited": 19727,
      "##cap": 17695,
      "collections": 6407,
      "jealousy": 14225,
      "feeding": 8521,
      "[unused290]": 295,
      "auction": 10470,
      "[unused241]": 246,
      "arises": 18653,
      "##nivorous": 29193,
      "georg": 12062,
      "toilet": 11848,
      "vila": 23840,
      "jana": 23341,
      "clashed": 22600,
      "∆": 1594,
      "ideological": 17859,
      "[unused766]": 771,
      "harsh": 8401,
      "behaved": 26979,
      "schleswig": 21173,
      "##rance": 21621,
      "welcomed": 10979,
      "##glass": 15621,
      "##face": 12172,
      "[unused831]": 836,
      "healy": 25706,
      "##φ": 29736,
      "[unused456]": 461,
      "hoarse": 21221,
      "liable": 20090,
      "ev": 23408,
      "contact": 3967,
      "roses": 10529,
      "##ե": 29770,
      "ibn": 7839,
      "combat": 4337,
      "ia": 24264,
      "buenos": 9204,
      "accordance": 10388,
      "##sari": 22740,
      "kabul": 21073,
      "letterman": 26593,
      "engaging": 11973,
      "landowners": 20152,
      "lantern": 12856,
      "short": 2460,
      "withdraw": 10632,
      "ո": 1232,
      "enrollment": 10316,
      "##tary": 18219,
      "mv": 19842,
      "##ђ": 29758,
      "##ooping": 29046,
      "##oin": 28765,
      "hangul": 19051,
      "delhi": 6768,
      "telecast": 28803,
      "detect": 11487,
      "blankets": 15019,
      "filtered": 21839,
      "documented": 8832,
      "德": 1848,
      "interrupting": 22602,
      "halfway": 8576,
      "ballast": 28030,
      "constantin": 27991,
      "backdrop": 18876,
      "wrapped": 5058,
      "fein": 27132,
      "requires": 5942,
      "sparks": 12300,
      "limb": 15291,
      "ц": 1201,
      "gauge": 7633,
      "avoids": 26777,
      "fujian": 29551,
      "shouting": 11273,
      "श": 1336,
      "jumping": 8660,
      "nepali": 23418,
      "deeply": 6171,
      "implementation": 7375,
      "burundi": 28836,
      "##ean": 11219,
      "[unused22]": 23,
      "##ison": 10929,
      "destroys": 20735,
      "este": 28517,
      "premiership": 11264,
      "carr": 12385,
      "##oum": 24778,
      "##চ": 29892,
      "week": 2733,
      "cooking": 8434,
      "distinction": 7835,
      "##ゆ": 30209,
      "vile": 25047,
      "capturing": 11847,
      "hubbard": 16580,
      "announcer": 14073,
      "tricked": 24929,
      "browns": 13240,
      "junction": 5098,
      "tunnels": 10633,
      "maximal": 29160,
      "##hak": 20459,
      "realistic": 12689,
      "sbs": 21342,
      "hunger": 9012,
      "thunder": 8505,
      "gal": 14891,
      "burroughs": 25991,
      "##■": 30144,
      "[unused24]": 25,
      "annually": 6604,
      "##sions": 27466,
      "anthology": 9637,
      "later": 2101,
      "obviously": 5525,
      "wallace": 7825,
      "der": 4315,
      "wraps": 19735,
      "##hat": 12707,
      "humanoid": 28051,
      "##physics": 15638,
      "159": 18914,
      "luton": 17807,
      "critical": 4187,
      "##ouring": 27897,
      "gardiner": 21143,
      "minute": 3371,
      "strangers": 12358,
      "ج": 1275,
      "recipient": 7799,
      "hahn": 24266,
      "[unused386]": 391,
      "##oza": 25036,
      "123": 13138,
      "[unused120]": 125,
      "cosmos": 21182,
      "waitress": 13877,
      "т": 1197,
      "scribe": 27789,
      "kung": 18577,
      "karen": 8129,
      "flanagan": 26558,
      "##ggy": 22772,
      "sampled": 18925,
      "martyrs": 18945,
      "resistant": 13070,
      "van": 3158,
      "couldn": 2481,
      "rags": 26346,
      "del": 3972,
      "##mity": 16383,
      "1761": 21364,
      "ben": 3841,
      "households": 3911,
      "together": 2362,
      "##ncia": 22750,
      "##ede": 14728,
      "jealous": 9981,
      "kunst": 28145,
      "amelia": 11556,
      "mig": 19117,
      "ari": 10488,
      "greek": 3306,
      "##aks": 29243,
      "skirt": 9764,
      "pirate": 11304,
      "exported": 15612,
      "silence": 4223,
      "scans": 27404,
      "″": 1532,
      "longitudinal": 20134,
      "talents": 11725,
      "gloves": 11875,
      "regulation": 7816,
      "sweaty": 19889,
      "technology": 2974,
      "alumni": 9441,
      "travels": 7930,
      "##ibar": 26656,
      "anne": 4776,
      "chickens": 21868,
      "pioneers": 13200,
      "continental": 6803,
      "##dek": 24463,
      "content": 4180,
      "##cens": 19023,
      "##hala": 19531,
      "##chemical": 15869,
      "sparkle": 26831,
      "bears": 6468,
      "advisor": 8619,
      "[unused586]": 591,
      "ache": 12336,
      "inhibitors": 25456,
      "instantly": 6880,
      "awkward": 9596,
      "[unused699]": 704,
      "punished": 14248,
      "ensure": 5676,
      "[unused36]": 37,
      "##izan": 27334,
      "supporters": 6793,
      "prized": 25695,
      "murderous": 25303,
      "[unused753]": 758,
      "egg": 8288,
      "adjutant": 20690,
      "effects": 3896,
      "##ว": 29955,
      "##vating": 26477,
      "##bari": 25990,
      "##listic": 27348,
      "##gies": 17252,
      "steal": 8954,
      "13": 2410,
      "##ided": 14097,
      "##ز": 29823,
      "fungus": 16622,
      "tile": 14090,
      "creating": 4526,
      "curse": 8364,
      "forces": 2749,
      "[unused371]": 376,
      "lisa": 7059,
      "312": 21036,
      "1856": 8708,
      "personality": 6180,
      "salazar": 25315,
      "##elman": 23830,
      "##oa": 10441,
      "waterford": 17769,
      "##疒": 30439,
      "##nan": 7229,
      "[unused907]": 912,
      "angus": 13682,
      "12th": 5940,
      "##fles": 28331,
      "highest": 3284,
      "passionate": 13459,
      "variety": 3528,
      "catfish": 23723,
      "balanced": 12042,
      "glider": 18788,
      "[unused931]": 936,
      "cesar": 14923,
      "allegro": 25319,
      "internacional": 27607,
      "##せ": 30185,
      "campo": 22339,
      "address": 4769,
      "answers": 6998,
      "wrote": 2626,
      "sighs": 19906,
      "timothy": 10805,
      "donations": 11440,
      "glasses": 7877,
      "rourke": 24400,
      "gora": 26967,
      "##bar": 8237,
      "playboy": 18286,
      "condo": 25805,
      "spin": 6714,
      "[unused487]": 492,
      "ල": 1406,
      "fur": 6519,
      "intercontinental": 18725,
      "twins": 8178,
      "permits": 14245,
      "rangers": 7181,
      "##bedo": 28759,
      "necklace": 13016,
      "rulers": 11117,
      "chance": 3382,
      "atlanta": 5865,
      "kit": 8934,
      "##貝": 30478,
      "cindy": 15837,
      "push": 5245,
      "cairns": 21731,
      "##sher": 19603,
      "replace": 5672,
      "204": 19627,
      "heat": 3684,
      "maya": 9815,
      "entries": 10445,
      "##han": 4819,
      "robin": 5863,
      "mussolini": 22554,
      "slip": 7540,
      "flying": 3909,
      "##fr": 19699,
      "dictated": 23826,
      "[unused751]": 756,
      "banning": 21029,
      "john": 2198,
      "sorted": 19616,
      "regretted": 18991,
      "mutually": 20271,
      "abandonment": 22290,
      "##bard": 21458,
      "possessions": 13689,
      "persona": 16115,
      "ripped": 9157,
      "synagogue": 13067,
      "pitchers": 23232,
      "##tm": 21246,
      "##hog": 25852,
      "strata": 22913,
      "enthusiasts": 20305,
      "pitt": 15091,
      "empirical": 17537,
      "華": 1942,
      "##dates": 27122,
      "aggression": 14974,
      "these": 2122,
      "wi": 15536,
      "chicks": 20649,
      "briefs": 28760,
      "attacked": 4457,
      "##22": 19317,
      "2019": 10476,
      "astoria": 29285,
      "spilled": 13439,
      "scissors": 25806,
      "sulfur": 17864,
      "ideals": 15084,
      "startup": 22752,
      "[unused420]": 425,
      "cypriot": 18543,
      "hapoel": 24208,
      "burnham": 25295,
      "lulu": 21744,
      "forks": 19896,
      "##π": 29731,
      "##橋": 30411,
      "caravan": 17184,
      "styled": 13650,
      "##rana": 16737,
      "##llin": 21202,
      "running": 2770,
      "1500": 10347,
      "circus": 9661,
      "connacht": 27062,
      "masterpiece": 17743,
      "are": 2024,
      "speeches": 13867,
      "##lana": 16695,
      "distributor": 16632,
      "##ᵍ": 30036,
      "nasser": 26099,
      "coconut": 16027,
      "wardrobe": 17828,
      "##★": 30147,
      "##rath": 27362,
      "halted": 12705,
      "chop": 24494,
      "conway": 14783,
      "trenches": 19874,
      "fooled": 25857,
      "cal": 10250,
      "sound": 2614,
      "1643": 25534,
      "peters": 12420,
      "1570": 28881,
      "transition": 6653,
      "biscuits": 27529,
      "altogether": 10462,
      "abbess": 28010,
      "derivatives": 16942,
      "earn": 7796,
      "##ave": 10696,
      "##sling": 28886,
      "tram": 12517,
      "duly": 25073,
      "##版": 30433,
      "meaningful": 15902,
      "bladder": 24176,
      "culminated": 16943,
      "courier": 18092,
      "indies": 9429,
      "joyah": 27098,
      "worry": 4737,
      "restraints": 28054,
      "permitted": 7936,
      "enforcing": 27455,
      "lia": 22393,
      "265": 20549,
      "stupid": 5236,
      "lewis": 4572,
      "notions": 21951,
      "plays": 3248,
      "smashwords": 25151,
      "##fat": 27753,
      "lund": 21860,
      "seo": 27457,
      "betty": 9306,
      "banking": 8169,
      "gleaming": 18242,
      "erratic": 24122,
      "across": 2408,
      "hartman": 26766,
      "joo": 28576,
      "[unused808]": 813,
      "tracing": 16907,
      "1940s": 7675,
      "##%": 29616,
      "expired": 13735,
      "lettering": 25782,
      "copy": 6100,
      "dominique": 18165,
      "##阿": 30497,
      "93": 6109,
      "threats": 8767,
      "##ide": 5178,
      "remark": 17674,
      "savior": 24859,
      "##jer": 20009,
      "khmer": 19472,
      "extracts": 27059,
      "champaign": 28843,
      "ᄌ": 1464,
      "pipe": 8667,
      "butterflies": 15023,
      "mutter": 23457,
      "component": 6922,
      "力": 1778,
      "blinding": 19709,
      "jen": 15419,
      "emphasizes": 20618,
      "herring": 22103,
      "[unused663]": 668,
      "actress": 3883,
      "pereira": 23857,
      "meanings": 15383,
      "rocker": 24779,
      "largely": 4321,
      "##⁶": 30075,
      "##dal": 9305,
      "integrate": 17409,
      "packs": 15173,
      "dickson": 22076,
      "##tsky": 26824,
      "intimate": 10305,
      "plight": 24525,
      "##uration": 18924,
      "spite": 8741,
      "inscriptions": 12920,
      "##ngo": 16656,
      "careers": 10922,
      "fool": 7966,
      "inversion": 28527,
      "幸": 1841,
      "##holder": 14528,
      "edition": 3179,
      "evidenced": 21328,
      "les": 4649,
      "squeeze": 11025,
      "##pine": 19265,
      "meng": 27955,
      "researchers": 6950,
      "kite": 20497,
      "farmhouse": 16870,
      "alleging": 23294,
      "doin": 24341,
      "tensor": 23435,
      "##formed": 29021,
      "650": 13757,
      "ib": 21307,
      "netherlands": 4549,
      "گ": 1305,
      "sovereignty": 12601,
      "cue": 16091,
      "[unused51]": 52,
      "http": 8299,
      "heath": 9895,
      "mechanism": 7337,
      "∪": 1605,
      "##lc": 15472,
      "caitlin": 27555,
      "special": 2569,
      "pursued": 9505,
      "slavic": 13838,
      "##alis": 13911,
      "wire": 7318,
      "ringo": 25589,
      "expressing": 14026,
      "lancashire": 9638,
      "transitional": 17459,
      "galileo": 21514,
      "beau": 17935,
      "scattering": 17501,
      "cid": 28744,
      "namesake": 17283,
      "##beat": 19442,
      "swirled": 19171,
      "carleton": 22273,
      "levine": 17780,
      "##lford": 23211,
      "lifeless": 22185,
      "##scopic": 24895,
      "documentary": 4516,
      "desk": 4624,
      "pains": 20398,
      "refined": 15514,
      "##ag": 8490,
      "[unused575]": 580,
      "chaos": 8488,
      "theological": 9208,
      "##hear": 26560,
      "##д": 29742,
      "1729": 28449,
      "rallies": 22867,
      "##tl": 19646,
      "ी": 1342,
      "hug": 8549,
      "255": 20637,
      "##jm": 24703,
      "steadily": 11328,
      "titan": 16537,
      "korean": 4759,
      "##ₚ": 30097,
      "vaccines": 28896,
      "integers": 24028,
      "ellen": 9155,
      "present": 2556,
      "adherence": 29235,
      "slant": 27474,
      "extant": 12905,
      "nomination": 6488,
      "rms": 29311,
      "neighbouring": 9632,
      "[unused617]": 622,
      "sounding": 9391,
      "##pose": 20688,
      "##nology": 21020,
      "##ings": 8613,
      "bigger": 7046,
      "##よ": 30210,
      "buckingham": 17836,
      "suburbs": 9435,
      "nursery": 13640,
      "spend": 5247,
      "broker": 20138,
      "##ssler": 23385,
      "libre": 21091,
      "themes": 6991,
      "least": 2560,
      "##dez": 24601,
      "ほ": 1676,
      "##unds": 26698,
      "##mers": 16862,
      "jennings": 14103,
      "torn": 7950,
      "southland": 29121,
      "afi": 28697,
      "participants": 6818,
      "cornish": 17797,
      "catalonia": 16711,
      "spit": 13183,
      "weakly": 17541,
      "rail": 4334,
      "[unused342]": 347,
      "##oma": 9626,
      "salts": 23480,
      "##oped": 24174,
      "grand": 2882,
      "reaction": 4668,
      "enchanted": 22454,
      "##stra": 20528,
      "##ima": 9581,
      "node": 13045,
      "[unused450]": 455,
      "herald": 9536,
      "botany": 17018,
      "##tai": 15444,
      "brasil": 21133,
      "##nant": 16885,
      "##mb": 14905,
      "camp": 3409,
      "grow": 4982,
      "hidden": 5023,
      "vera": 12297,
      "dai": 18765,
      "stronger": 6428,
      "kids": 4268,
      "thirteen": 7093,
      "holdings": 9583,
      "provided": 3024,
      "offset": 16396,
      "yellowish": 17804,
      "edith": 13257,
      "educator": 11490,
      "monument": 6104,
      "exited": 15284,
      "##din": 8718,
      "[unused650]": 655,
      "##ioms": 29178,
      "##oven": 25592,
      "misleading": 22369,
      "downloadable": 26720,
      "ghostly": 24407,
      "##hel": 16001,
      "##eses": 23072,
      "##piece": 11198,
      "steady": 6706,
      "unlock": 19829,
      "extracted": 15901,
      "messengers": 28938,
      "ek": 23969,
      "bleed": 19501,
      "hoop": 27669,
      "paragraph": 20423,
      "turbine": 14027,
      "[unused731]": 736,
      "predominant": 21047,
      "##oto": 11439,
      "shall": 4618,
      "calculus": 19276,
      "interactive": 9123,
      "##yl": 8516,
      "anchored": 14453,
      "lump": 15116,
      "funky": 24151,
      "jamaica": 9156,
      "##ffen": 18032,
      "##of": 11253,
      "evans": 6473,
      "1661": 24046,
      "##umi": 12717,
      "utter": 14395,
      "sank": 7569,
      "warmer": 16676,
      "roster": 9238,
      "nerves": 10627,
      "ymca": 26866,
      "fatty": 19101,
      "1644": 23477,
      "jerking": 22387,
      "##islaus": 25678,
      "##roup": 22107,
      "automatic": 6882,
      "moans": 24675,
      "ri": 15544,
      "rendition": 19187,
      "predators": 12630,
      "spun": 7455,
      "rosenthal": 29062,
      "##so": 6499,
      "##ocation": 23909,
      "web": 4773,
      "quarter": 4284,
      "gain": 5114,
      "monster": 6071,
      "altitude": 7998,
      "451": 28161,
      "jo": 8183,
      "arcadia": 25178,
      "##ropriation": 26121,
      "clad": 13681,
      "sultan": 7544,
      "finch": 16133,
      "slopes": 10314,
      "cash": 5356,
      "seton": 28796,
      "escaped": 6376,
      "##quitable": 28298,
      "philanthropy": 29291,
      "shelters": 17177,
      "appellate": 23240,
      "broadcasters": 18706,
      "brothers": 3428,
      "beige": 28799,
      "process": 2832,
      "myers": 13854,
      "reuters": 26665,
      "nolan": 13401,
      "##lled": 11001,
      "##sation": 26652,
      "##iaceae": 23357,
      "steering": 9602,
      "[unused144]": 149,
      "blaze": 15347,
      "hostess": 22566,
      "monitored": 17785,
      "ministry": 3757,
      "vols": 18709,
      "surveyed": 12876,
      "ი": 1445,
      "##adia": 25205,
      "navigation": 9163,
      "estimated": 4358,
      "##rom": 21716,
      "##bbies": 27982,
      "ambiguous": 20080,
      "suez": 21974,
      "shawn": 13218,
      "1992": 2826,
      "138": 15028,
      "injury": 4544,
      "mystic": 17477,
      "##sfield": 15951,
      "novo": 24576,
      "##sboro": 25623,
      "tina": 11958,
      "unto": 19662,
      "##15": 16068,
      "less": 2625,
      "education": 2495,
      "weathered": 28445,
      "sk": 15315,
      "canadians": 16485,
      "gov": 18079,
      "guinness": 17323,
      "##?": 29632,
      "driven": 5533,
      "dh": 28144,
      "stacey": 19997,
      "##uel": 16284,
      "whereby": 13557,
      "rey": 12569,
      "brotherhood": 12865,
      "tara": 10225,
      "commentators": 15957,
      "heartland": 27399,
      "yard": 4220,
      "shadows": 6281,
      "zhou": 14367,
      "guardians": 14240,
      "chunk": 20000,
      "big": 2502,
      "##ida": 8524,
      "[unused282]": 287,
      "205": 16327,
      "arsenal": 9433,
      "bushes": 14568,
      "isabella": 10323,
      "diamond": 6323,
      "ש": 1266,
      "satellites": 14549,
      "rivers": 5485,
      "capitals": 15433,
      "千": 1784,
      "reeve": 20726,
      "complete": 3143,
      "hitting": 7294,
      "earthquake": 8372,
      "they": 2027,
      "saul": 16897,
      "##rter": 19418,
      "##vron": 28588,
      "trailing": 12542,
      "covered": 3139,
      "stakeholders": 22859,
      "##rent": 22787,
      "##lard": 20822,
      "##cola": 26289,
      "huddersfield": 19715,
      "griffin": 9258,
      "retreat": 7822,
      "younger": 3920,
      "section": 2930,
      "unincorporated": 7754,
      "mysteriously": 29239,
      "outfit": 11018,
      "achilles": 23167,
      "slim": 11754,
      "flipping": 18497,
      "smallest": 10479,
      "telescope": 12772,
      "wai": 23701,
      "##wife": 19993,
      "##hrer": 17875,
      "vague": 13727,
      "63": 6191,
      "kochi": 27603,
      "bf": 28939,
      "forget": 5293,
      "electricity": 6451,
      "lambda": 23375,
      "griffiths": 21960,
      "functional": 8360,
      "doorstep": 26581,
      "buy": 4965,
      "##ug": 15916,
      "mascot": 13314,
      "1727": 25350,
      "louvre": 25110,
      "1826": 11931,
      "corner": 3420,
      "nielsen": 13188,
      "aus": 17151,
      "##nty": 29405,
      "##⊗": 30140,
      "buddy": 8937,
      "cher": 24188,
      "gentleman": 10170,
      "bull": 7087,
      "##zman": 24340,
      "arrests": 17615,
      "ozone": 26443,
      "establishes": 21009,
      "manchu": 26650,
      "royale": 24483,
      "##pal": 12952,
      "sms": 22434,
      "##將": 30354,
      "scarred": 21985,
      "advent": 13896,
      "complexes": 15420,
      "defence": 4721,
      "belinda": 24574,
      "kb": 21677,
      "##ista": 11921,
      "sumatra": 18262,
      "201": 16345,
      "resumed": 7943,
      "den": 7939,
      "lever": 15929,
      "tears": 4000,
      "listeners": 13810,
      "urge": 9075,
      "superior": 6020,
      "finally": 2633,
      "clothed": 24963,
      "laced": 17958,
      "##ceae": 9071,
      "cutter": 16343,
      "brian": 4422,
      "ultra": 11087,
      "##－": 30516,
      "&": 1004,
      "brushing": 12766,
      "exchanged": 10573,
      "even": 2130,
      "ankle": 10792,
      "parana": 28383,
      "penalties": 12408,
      "##uet": 23361,
      "prize": 3396,
      "schedule": 6134,
      "selects": 27034,
      "chewing": 17492,
      "homes": 5014,
      "boyfriend": 6898,
      "##ტ": 29989,
      "##outh": 17167,
      "rumored": 22710,
      "principals": 27928,
      "job": 3105,
      "hardwood": 23165,
      "heel": 12073,
      "serie": 8668,
      "1959": 3851,
      "##olved": 16116,
      "auckland": 8666,
      "towers": 7626,
      "##bria": 21556,
      "[unused732]": 737,
      "zhejiang": 26805,
      "eugen": 29273,
      "##dles": 27822,
      "metallic": 12392,
      "ito": 23333,
      "##ling": 2989,
      "individually": 14258,
      "dame": 8214,
      "christ": 4828,
      "sas": 21871,
      "related": 3141,
      "crew": 3626,
      "itunes": 11943,
      "deals": 9144,
      "manipulated": 20063,
      "rented": 12524,
      "tonnes": 11000,
      "actual": 5025,
      "[unused504]": 509,
      "willem": 18811,
      "clare": 11152,
      "attracts": 17771,
      "momentum": 11071,
      "hovered": 18190,
      "seymour": 13254,
      "lavish": 22689,
      "tombstone": 26671,
      "fortunate": 19590,
      "weakening": 22031,
      "faculty": 4513,
      "shocked": 7135,
      "guadalupe": 23529,
      "lithium": 22157,
      "parapet": 27372,
      "hanoi": 24809,
      "confronted": 12892,
      "insurance": 5427,
      "staffordshire": 17052,
      "receptions": 16466,
      "whereas": 6168,
      "emanuel": 21135,
      "thousand": 4595,
      "atlantic": 4448,
      "slick": 13554,
      "##ს": 29988,
      "##emia": 17577,
      "compare": 12826,
      "##⁵": 30074,
      "dungeons": 20264,
      "##we": 8545,
      "togo": 23588,
      "laurence": 10883,
      "##ensburg": 28812,
      "н": 1192,
      "swim": 9880,
      "##№": 30106,
      "##44": 22932,
      "overs": 15849,
      "bouquet": 26700,
      "coached": 8868,
      "##語": 30476,
      "##ney": 5420,
      "stryker": 25429,
      "eden": 10267,
      "##cus": 7874,
      "alarms": 29034,
      "abel": 16768,
      "tar": 16985,
      "##fusion": 20523,
      "sp": 11867,
      "tomatoes": 12851,
      "thyroid": 29610,
      "edict": 24754,
      "ই": 1349,
      "##eg": 13910,
      "lungs": 8948,
      "##ans": 6962,
      "consumption": 8381,
      "going": 2183,
      "pbs": 13683,
      "explicitly": 12045,
      "organized": 4114,
      "ladies": 6456,
      "labourers": 24043,
      "blocking": 10851,
      "parma": 19177,
      "persians": 27229,
      "several": 2195,
      "##enberg": 11029,
      "wc": 15868,
      "revealing": 8669,
      "javier": 13824,
      "##tures": 22662,
      "##hh": 23644,
      "148": 16459,
      "samples": 8168,
      "##86": 20842,
      "##owe": 29385,
      "##andra": 29159,
      "gaped": 23832,
      "##ћ": 29764,
      "heidelberg": 16793,
      "posed": 13686,
      "stamps": 12133,
      "copied": 15826,
      "##woods": 25046,
      "weakened": 11855,
      "auditor": 20964,
      "criticized": 6367,
      "trout": 13452,
      "sony": 8412,
      "said": 2056,
      "meters": 5563,
      "pauses": 19623,
      "postdoctoral": 29272,
      "##games": 26393,
      "cabinet": 5239,
      "vascular": 21449,
      "die": 3280,
      "rediscovered": 26733,
      "victorian": 6652,
      "shock": 5213,
      "##人": 30282,
      "##inking": 29377,
      "##eda": 11960,
      "##ois": 10054,
      "saints": 6586,
      "/": 1013,
      "28th": 15538,
      "mackenzie": 11407,
      "natal": 17489,
      "rouge": 12801,
      "cfa": 28125,
      "suffix": 16809,
      "##page": 13704,
      "vibrated": 27801,
      "diagrams": 26309,
      "rainer": 28035,
      "chen": 8802,
      "##shing": 12227,
      "obstacle": 18355,
      "suicide": 5920,
      "loop": 7077,
      "horatio": 27752,
      "cornice": 27848,
      "##lace": 19217,
      "trondheim": 26331,
      "help": 2393,
      "indifference": 25920,
      "kansas": 5111,
      "##ilation": 29545,
      "simeon": 24371,
      "essays": 8927,
      "cheng": 15898,
      "educational": 4547,
      "temper": 12178,
      "##mics": 22924,
      "risked": 22374,
      "[unused947]": 952,
      "##ake": 13808,
      "1646": 28783,
      "competence": 22219,
      "torino": 24737,
      "sign": 3696,
      "undertaker": 27568,
      "guest": 4113,
      "goo": 27571,
      "terence": 22677,
      "tent": 9311,
      "tsar": 17608,
      "cromwell": 16759,
      "croydon": 21838,
      "wide": 2898,
      "apparatus": 14709,
      "##tera": 14621,
      "matter": 3043,
      "##た": 30187,
      "sufficiently": 12949,
      "peacekeeping": 28364,
      "complied": 26946,
      "analyzing": 20253,
      "resentment": 20234,
      "##growth": 26982,
      "vaudeville": 19698,
      "deficiency": 18888,
      "##que": 4226,
      "1664": 28485,
      "treasure": 8813,
      "infected": 10372,
      "beautifully": 17950,
      "buds": 26734,
      "masters": 5972,
      "examinations": 14912,
      "misunderstood": 28947,
      "carly": 18431,
      "seek": 6148,
      "explosives": 14792,
      "[unused17]": 18,
      "##yas": 16303,
      "synthesizers": 22211,
      "cote": 17155,
      "murray": 6264,
      "consultative": 28581,
      "occupying": 13992,
      "plants": 4264,
      "leroy": 19103,
      "myriad": 25028,
      "distracted": 11116,
      "wavelengths": 29263,
      "[unused300]": 305,
      "美": 1935,
      "seemed": 2790,
      "##川": 30361,
      "pregnant": 6875,
      "represented": 3421,
      "resorts": 16511,
      "quartermaster": 24688,
      "##nikov": 22576,
      "[unused317]": 322,
      "##shi": 6182,
      "turkish": 5037,
      "canyon": 8399,
      "betray": 20895,
      "##ei": 7416,
      "1984": 3118,
      "princess": 4615,
      "skimmed": 28862,
      "spelling": 11379,
      "[unused65]": 66,
      "chromosomes": 26874,
      "le": 3393,
      "##∘": 30126,
      "##enne": 24336,
      "chun": 20979,
      "##isch": 19946,
      "testament": 9025,
      "stalls": 19753,
      "macy": 20914,
      "depth": 5995,
      "##ich": 7033,
      "##cision": 28472,
      "##幸": 30367,
      "cozy": 26931,
      "sure": 2469,
      "fond": 13545,
      "ᄀ": 1455,
      "printing": 8021,
      "##sdale": 15145,
      "##oslav": 23085,
      "##ve": 3726,
      "trusts": 20278,
      "robson": 23698,
      "##18": 15136,
      "diplomat": 11125,
      "12": 2260,
      "reopened": 11882,
      "communes": 16569,
      "easing": 24070,
      "je": 15333,
      "##xes": 20156,
      "fortified": 13313,
      "believers": 20373,
      "60": 3438,
      "etienne": 16821,
      "##ᵖ": 30040,
      "egyptians": 23437,
      "strands": 14119,
      "sat": 2938,
      "##heart": 22375,
      "forth": 5743,
      "earthly": 29520,
      "##lass": 27102,
      "##xton": 14226,
      "##plicity": 27293,
      "contention": 18974,
      "brett": 12049,
      "pulse": 8187,
      "paxton": 27765,
      "elliot": 11759,
      "1816": 12357,
      "declines": 26451,
      "¼": 1091,
      "slowed": 9784,
      "revisions": 24699,
      "verge": 16079,
      "lin": 11409,
      "elf": 17163,
      "broadly": 13644,
      "hot": 2980,
      "posted": 6866,
      "##lette": 27901,
      "passengers": 5467,
      "reciprocal": 28309,
      "ransom": 16540,
      "##rger": 25858,
      "amplifier": 22686,
      "crater": 11351,
      "sentiment": 15792,
      "blankly": 26344,
      "八": 1771,
      "imperialism": 28087,
      "diversified": 24908,
      "tailed": 14578,
      "powerless": 25192,
      "shivers": 28464,
      "##hila": 26415,
      "##tream": 25379,
      "repealed": 21492,
      "sneered": 28098,
      "televised": 13762,
      "##aine": 18175,
      "shipments": 24636,
      "ape": 23957,
      "het": 21770,
      "devil": 6548,
      "stressed": 13233,
      "great": 2307,
      "feminine": 12320,
      "##ever": 22507,
      "implant": 27159,
      "please": 3531,
      "fold": 10671,
      "akbar": 20730,
      "stuart": 6990,
      "remove": 6366,
      "メ": 1726,
      "resignation": 8172,
      "##rk": 8024,
      "##sbury": 18065,
      "pegasus": 26606,
      "##rove": 17597,
      "asks": 5176,
      "<": 1026,
      "mas": 16137,
      "##ns": 3619,
      "##icio": 27113,
      "##sier": 20236,
      "[unused956]": 961,
      "fugitive": 21329,
      "ile": 17869,
      "specializes": 16997,
      "##sa": 3736,
      "lauren": 10294,
      "mccann": 28641,
      "aristotle": 17484,
      "336": 27954,
      "[unused235]": 240,
      "validity": 16406,
      "formidable": 18085,
      "icons": 18407,
      "oppressive": 28558,
      "main": 2364,
      "##ו": 29792,
      "apt": 26794,
      "##zd": 26494,
      "800": 5385,
      "##愛": 30379,
      "span": 8487,
      "volume": 3872,
      "plausible": 24286,
      "historian": 5272,
      "##trip": 24901,
      "##rug": 26549,
      "longevity": 26906,
      "quarry": 12907,
      "palmer": 8809,
      "dashed": 18198,
      "##enter": 29110,
      "appointed": 2805,
      "##har": 8167,
      "##los": 10483,
      "crook": 19302,
      "norman": 5879,
      "postal": 10690,
      "shook": 3184,
      "trial": 3979,
      "forearm": 16148,
      "prostitutes": 20833,
      "grimes": 24865,
      "##code": 16044,
      "myles": 27056,
      "attache": 29489,
      "refrain": 20703,
      "apart": 4237,
      "⁸": 1542,
      "西": 1947,
      "##dak": 23597,
      "curly": 17546,
      "rifle": 5883,
      "##♦": 30153,
      "survive": 5788,
      "however": 2174,
      "blinking": 15997,
      "gross": 7977,
      "shot": 2915,
      "[unused310]": 315,
      "consolidated": 10495,
      "rome": 4199,
      "cosmopolitan": 24686,
      "covenant": 16077,
      "kenneth": 8856,
      "##port": 6442,
      "modulation": 25502,
      "meals": 12278,
      "blurted": 18751,
      "safeguard": 28805,
      "bea": 26892,
      "nowadays": 13367,
      "law": 2375,
      "##rik": 15564,
      "cruz": 8096,
      "boiler": 15635,
      "urgency": 19353,
      "welfare": 7574,
      "astrid": 27376,
      "##anial": 27532,
      "##gos": 12333,
      "privacy": 9394,
      "subconscious": 27952,
      "##ades": 18673,
      "tommy": 6838,
      "disagree": 21090,
      "thirds": 12263,
      "##ary": 5649,
      "283": 25504,
      "京": 1755,
      "wines": 14746,
      "sudanese": 25603,
      "identifiable": 27800,
      "domains": 13100,
      "embedded": 11157,
      "sampson": 22041,
      "backed": 6153,
      "enjoying": 9107,
      "alternately": 23554,
      "216": 20294,
      "warlock": 28861,
      "##iz": 10993,
      "indefinitely": 20733,
      "natalie": 10829,
      "supposed": 4011,
      "[unused916]": 921,
      "squeak": 29552,
      "##ige": 25538,
      "fantasy": 5913,
      "invasive": 17503,
      "depicts": 11230,
      "forge": 15681,
      "lowry": 27281,
      "##nging": 22373,
      "##₱": 30103,
      "##may": 27871,
      "reject": 15454,
      "neighbours": 14754,
      "rebuild": 14591,
      "monkey": 10608,
      "kwan": 27741,
      "ballads": 18456,
      "sly": 18230,
      "gershwin": 25600,
      "discouraged": 22585,
      "interpretation": 7613,
      "freddy": 19343,
      "##竹": 30459,
      "ot": 27178,
      "980": 25195,
      "pod": 17491,
      "†": 1526,
      "harvard": 5765,
      "明": 1865,
      "explored": 10641,
      "[unused550]": 555,
      "matilda": 17981,
      "##ezer": 25733,
      "reception": 7684,
      "campuses": 13696,
      "##ك": 29835,
      "principally": 16552,
      "other": 2060,
      "pittsburgh": 6278,
      "minorities": 14302,
      "administer": 21497,
      "opponents": 7892,
      "owe": 12533,
      "stages": 5711,
      "utc": 11396,
      "band": 2316,
      "astronaut": 19748,
      "honorable": 13556,
      "6000": 25961,
      "technically": 10892,
      "atv": 29108,
      "relieved": 7653,
      "##ssee": 29522,
      "roman": 3142,
      "absence": 6438,
      "nicholson": 16955,
      "undergoes": 29129,
      "##kara": 16566,
      "##iques": 19516,
      "immigrant": 11560,
      "代": 1760,
      "aspirations": 22877,
      "examples": 4973,
      "seine": 16470,
      "##yler": 20853,
      "currency": 9598,
      "celebrate": 8439,
      "theft": 11933,
      "gatherings": 21403,
      "sherman": 11011,
      "þ": 1101,
      "##র": 29908,
      "reversal": 23163,
      "emil": 16243,
      "diagnosis": 11616,
      "establishment": 5069,
      "receptors": 13833,
      "facial": 13268,
      "[unused336]": 341,
      "hitchcock": 19625,
      "armed": 4273,
      "beginnings": 16508,
      "##ы": 29113,
      "##stick": 21354,
      "idol": 10282,
      "##mina": 22311,
      "rm": 28549,
      "##sume": 23545,
      "[unused974]": 979,
      "tempting": 23421,
      "[unused770]": 775,
      "##loid": 27710,
      "adjustable": 26404,
      "elm": 17709,
      "##ardo": 24649,
      "enslaved": 22216,
      "##lative": 26255,
      "closeness": 28398,
      "##比": 30416,
      "liz": 9056,
      "1960": 3624,
      "151": 16528,
      "##ron": 4948,
      "regulatory": 10738,
      "shouldn": 5807,
      "hydraulic": 14761,
      "bo": 8945,
      "tissues": 14095,
      "mainline": 20575,
      "ᄑ": 1468,
      "dependent": 7790,
      "tolerant": 23691,
      "hopping": 26397,
      "contestant": 10832,
      "##script": 22483,
      "73": 6421,
      "##rage": 24449,
      "mediterranean": 7095,
      "muted": 22124,
      "ucla": 12389,
      "conscience": 13454,
      "obscure": 14485,
      "diego": 5277,
      "extraction": 14676,
      "choir": 6596,
      "##rued": 28551,
      "sega": 16562,
      "ban": 7221,
      "selected": 3479,
      "##成": 30380,
      "tourist": 7538,
      "##tis": 7315,
      "##dridge": 21482,
      "rodriguez": 9172,
      "wilfred": 26026,
      "##ative": 8082,
      "reserves": 8269,
      "1645": 26081,
      "autumn": 7114,
      "repertoire": 13646,
      "[unused683]": 688,
      "##nem": 25832,
      "offended": 15807,
      "strengthened": 13949,
      "bar": 3347,
      "higgins": 13466,
      "2003": 2494,
      "##gen": 6914,
      "inconsistent": 20316,
      "stevens": 8799,
      "parking": 5581,
      "africans": 18076,
      "walt": 10598,
      "louisville": 11577,
      "newest": 14751,
      "irrational": 23179,
      "59": 5354,
      "##rrow": 28597,
      "sands": 13457,
      "ष": 1337,
      "prototypes": 19599,
      "refugee": 13141,
      "##r": 2099,
      "##ᅴ": 30018,
      "[unused78]": 79,
      "gettysburg": 22577,
      "√": 1600,
      "yorker": 19095,
      "[unused368]": 373,
      "turtles": 16489,
      "rasped": 28459,
      "dolly": 19958,
      "ᆼ": 1489,
      "annette": 22521,
      "ھ": 1307,
      "amar": 23204,
      "karnataka": 12092,
      "malmo": 23643,
      "oakley": 28876,
      "[unused512]": 517,
      "vii": 8890,
      "coupling": 19780,
      "inflammatory": 20187,
      "chew": 21271,
      "undergoing": 14996,
      "invested": 11241,
      "shadowed": 25843,
      "spaces": 7258,
      "instituted": 14948,
      "##cor": 27108,
      "arrows": 12563,
      "fray": 25975,
      "facilities": 4128,
      "1941": 3874,
      "##therapy": 20900,
      "##名": 30321,
      "married": 2496,
      "##buck": 24204,
      "⟨": 1629,
      "##դ": 29769,
      "acacia": 24766,
      "altered": 8776,
      "##真": 30447,
      "##quist": 18331,
      "##ص": 29826,
      "##ほ": 30202,
      "symmetric": 19490,
      "54": 5139,
      "assuming": 10262,
      "committed": 5462,
      "rhys": 13919,
      "hiding": 6318,
      "trident": 26515,
      "sachs": 22818,
      "producers": 6443,
      "##asia": 15396,
      "seller": 14939,
      "confusion": 6724,
      "sexes": 21024,
      "##oses": 27465,
      "groundwater": 22761,
      "drugged": 25483,
      "beer": 5404,
      "##iens": 24836,
      "begged": 12999,
      "##ю": 29757,
      "##rest": 28533,
      "harrison": 6676,
      "oder": 27215,
      "albuquerque": 19334,
      "curtains": 14694,
      "helmets": 22674,
      "##mia": 10092,
      "##]": 29636,
      "staten": 24161,
      "##ecure": 29150,
      "##met": 11368,
      "exception": 6453,
      "consultants": 22283,
      "##њ": 29763,
      "##ikh": 28209,
      "proceedings": 8931,
      "superb": 21688,
      "##yuan": 17236,
      "districts": 4733,
      "囗": 1797,
      "firms": 9786,
      "airspace": 29357,
      "burgundy": 18383,
      "amused": 11770,
      "conception": 13120,
      "##和": 30322,
      "budgets": 26178,
      "nutrition": 14266,
      "ि": 1341,
      "powell": 8997,
      "touched": 5028,
      "heightened": 21106,
      "##tock": 17406,
      "##ticus": 29587,
      "blackberry": 25935,
      "theirs": 17156,
      "squire": 21263,
      "somerset": 9198,
      "vhs": 17550,
      "dorsey": 27332,
      "gulped": 25411,
      "descending": 15127,
      "##uli": 15859,
      "##akh": 27573,
      "hue": 20639,
      "interfering": 24324,
      "mono": 18847,
      "baptist": 7550,
      "##fe": 7959,
      "abnormal": 19470,
      "clemens": 27277,
      "aux": 19554,
      "[unused622]": 627,
      "##ghan": 22218,
      "327": 28469,
      "steve": 3889,
      "##ety": 27405,
      "hannibal": 24181,
      "##nco": 15305,
      "raceway": 23018,
      "vegetable": 15415,
      "bland": 20857,
      "unmarried": 17204,
      "advantage": 5056,
      "2d": 14134,
      "##cr": 26775,
      "throttle": 24420,
      "##chang": 22305,
      "busted": 23142,
      "opinion": 5448,
      "colorful": 14231,
      "bien": 29316,
      "thrilled": 16082,
      "ह": 1339,
      "##zquez": 22938,
      "252": 22898,
      "interfere": 15115,
      "sicily": 12071,
      "##tower": 23196,
      "chevy": 29009,
      "compiler": 21624,
      "parade": 7700,
      "stamped": 20834,
      "designation": 8259,
      "lamar": 19756,
      "coverage": 6325,
      "##bham": 25522,
      "markets": 6089,
      "rod": 8473,
      "jp": 16545,
      "trusting": 19836,
      "##pt": 13876,
      "##ope": 17635,
      "augustus": 11668,
      "[unused632]": 637,
      "##☆": 30148,
      "jogged": 27812,
      "ethnicity": 18240,
      "[unused281]": 286,
      "snatched": 14177,
      "successive": 11165,
      "reproduce": 21376,
      "glamorgan": 23861,
      "[unused172]": 177,
      "425": 23285,
      "malicious": 24391,
      "personal": 3167,
      "basil": 14732,
      "clifford": 13894,
      "benjamin": 6425,
      "kidding": 12489,
      "team": 2136,
      "##mide": 24284,
      "tribute": 7050,
      "є": 1212,
      "lobby": 9568,
      "vedic": 25824,
      "##gus": 12349,
      "girls": 3057,
      "priory": 14284,
      "bag": 4524,
      "##yoshi": 19196,
      "hundreds": 5606,
      "negatively": 19762,
      "denying": 16039,
      "##city": 12972,
      "licensing": 13202,
      "##ker": 5484,
      "kolkata": 13522,
      "[unused55]": 56,
      "##hell": 18223,
      "harta": 26283,
      "cruel": 10311,
      "evil": 4763,
      "armenia": 10110,
      "##eim": 12112,
      "##32": 16703,
      "siemens": 22108,
      "1690": 24765,
      "inexpensive": 23766,
      "##bility": 8553,
      "##try": 11129,
      "##ately": 28239,
      "[unused130]": 135,
      "casinos": 27300,
      "[unused981]": 986,
      "wilkinson": 16237,
      "外": 1809,
      "phased": 21718,
      "clinch": 29119,
      "##i": 2072,
      "bestowed": 17398,
      "olivier": 14439,
      "corrosion": 24625,
      "greeted": 11188,
      "##ila": 11733,
      "alabama": 6041,
      "creed": 16438,
      "##yal": 21095,
      "destroying": 9846,
      "romance": 7472,
      "dudley": 12648,
      "simply": 3432,
      "gibson": 9406,
      "policemen": 19809,
      "deposited": 14140,
      "interference": 11099,
      "juniors": 16651,
      "[unused330]": 335,
      "man": 2158,
      "banker": 13448,
      "cradle": 18293,
      "##acy": 15719,
      "thrilling": 26162,
      "majority": 3484,
      "reactions": 9597,
      "revolver": 17863,
      "doherty": 23798,
      "##n": 2078,
      "molecule": 13922,
      "##istle": 24242,
      "pose": 13382,
      "cyclic": 23750,
      "1935": 4437,
      "localities": 19664,
      "##kar": 6673,
      "##zal": 16739,
      "marley": 20326,
      "formally": 6246,
      "arrest": 6545,
      "perched": 17335,
      "##lwyn": 29287,
      "##oga": 18170,
      "##bilis": 27965,
      "promotional": 10319,
      "dancing": 5613,
      "inline": 23881,
      "jaipur": 28355,
      "lot": 2843,
      "publish": 10172,
      "hacked": 28719,
      "melissa": 9606,
      "zeta": 23870,
      "camden": 13267,
      "declaring": 13752,
      "freedom": 4071,
      "##gling": 18483,
      "eddie": 5752,
      "gabe": 12900,
      "highlighted": 11548,
      "##ナ": 30241,
      "1944": 3646,
      "thru": 27046,
      "basement": 8102,
      "vocals": 2955,
      "operator": 6872,
      "omnibus": 27284,
      "treasures": 17605,
      "fellows": 13572,
      "script": 5896,
      "detection": 10788,
      "prison": 3827,
      "aquitaine": 24973,
      "[unused154]": 159,
      "uniform": 6375,
      "tip": 5955,
      "tasked": 13487,
      "gulp": 26546,
      "battleship": 17224,
      "##stan": 12693,
      "harmonic": 19452,
      "##giving": 23795,
      "speaker": 5882,
      "##champ": 25450,
      "legend": 5722,
      "##fixed": 23901,
      "##rish": 18774,
      "contingent": 15445,
      "extending": 8402,
      "diesel": 7937,
      "bidding": 17534,
      "sword": 4690,
      "郡": 1959,
      "##ering": 7999,
      "minh": 19538,
      "[unused502]": 507,
      "cardinals": 9310,
      "##uck": 12722,
      "runaway": 19050,
      "carrier": 6839,
      "##el": 2884,
      "1848": 7993,
      "professional": 2658,
      "melodic": 17187,
      "的": 1916,
      "psychologists": 25428,
      "policeman": 14460,
      "dignitaries": 27960,
      "##uf": 16093,
      "lough": 29504,
      "savanna": 22323,
      "amassed": 22151,
      "rattled": 19252,
      "instrumentalist": 29253,
      "finding": 4531,
      "futuristic": 28971,
      "displays": 8834,
      "##ᵒ": 30039,
      "lan": 17595,
      "newcomers": 24159,
      "peeking": 28222,
      "jayne": 24408,
      "english": 2394,
      "##ena": 8189,
      "rear": 4373,
      "##lly": 9215,
      "albums": 4042,
      "glendale": 27649,
      "trait": 18275,
      "denomination": 18683,
      "##kia": 21128,
      "spartan": 20670,
      "remembered": 4622,
      "[unused50]": 51,
      "bancroft": 29351,
      "[unused186]": 191,
      "##chner": 28254,
      "referencing": 28789,
      "[unused402]": 407,
      "##ava": 12462,
      "##minate": 19269,
      "alligator": 28833,
      "networks": 6125,
      "accreditation": 14893,
      "landed": 5565,
      "##gly": 25643,
      "born": 2141,
      "[unused168]": 173,
      "separates": 18600,
      "lister": 27177,
      "helping": 5094,
      "lunatic": 26594,
      "leasing": 26707,
      "medallion": 22541,
      "fractured": 21726,
      "aquarium": 18257,
      "rubin": 20524,
      "##ece": 26005,
      "[unused446]": 451,
      "notification": 26828,
      "dd": 20315,
      "п": 1194,
      "dun": 24654,
      "##folk": 29284,
      "##rts": 21217,
      "im": 10047,
      "consider": 5136,
      "##tarian": 28897,
      "რ": 1451,
      "prevalent": 15157,
      "maternity": 23676,
      "1774": 17593,
      "tripoli": 21841,
      "promenade": 26815,
      "desperation": 15561,
      "feeds": 14172,
      "[unused901]": 906,
      "hardened": 15015,
      "##da": 2850,
      "a2": 22441,
      "fbi": 8495,
      "100": 2531,
      "career": 2476,
      "debate": 5981,
      "[unused599]": 604,
      "wiring": 27930,
      "tennis": 5093,
      "guerrero": 16938,
      "[unused940]": 945,
      "##hita": 23935,
      "photographic": 12416,
      "devoid": 22808,
      "niche": 18111,
      "##wald": 11191,
      "ක": 1403,
      "swat": 25414,
      "easy": 3733,
      "voters": 7206,
      "browser": 16602,
      "violate": 23640,
      "##ains": 28247,
      "bruise": 24851,
      "##cb": 27421,
      "[unused501]": 506,
      "cyclists": 21912,
      "crank": 27987,
      "builds": 16473,
      "shaman": 23610,
      "##dou": 26797,
      "bombers": 10544,
      "mined": 21846,
      "1918": 4271,
      "disappears": 17144,
      "bathurst": 21897,
      "hiroshi": 26882,
      "ˡ": 1151,
      "phillies": 15711,
      "binoculars": 29549,
      "galen": 21062,
      "kick": 5926,
      "tyson": 19356,
      "##rcle": 21769,
      "blades": 10491,
      "neumann": 22860,
      "engraved": 16328,
      "##trick": 22881,
      "##orough": 26388,
      "circuit": 4984,
      "withdrawal": 10534,
      "scarf": 18982,
      "##皇": 30443,
      "##mata": 21022,
      "edo": 18314,
      "fling": 27655,
      "##back": 5963,
      "©": 1075,
      "夫": 1813,
      "社": 1924,
      "solutions": 7300,
      "talk": 2831,
      "angelina": 23847,
      "unpleasant": 16010,
      "inactivated": 15663,
      "##oth": 14573,
      "ː": 1150,
      "##yce": 29297,
      "385": 24429,
      "##‐": 30048,
      "mouths": 15076,
      "advocated": 11886,
      "presenters": 25588,
      "495": 29302,
      "shaken": 16697,
      "mile": 3542,
      "fall": 2991,
      "siegfried": 25948,
      "1938": 4260,
      "ignored": 6439,
      "##gic": 12863,
      "himalayas": 26779,
      "adult": 4639,
      "slid": 4934,
      "pulpit": 23134,
      "1961": 3777,
      "esa": 28776,
      "karlsruhe": 26660,
      "mammal": 25476,
      "mo": 9587,
      "horses": 5194,
      "clown": 15912,
      "tbs": 29584,
      "##ₖ": 30094,
      "##una": 9521,
      "narrowed": 8061,
      "geoffrey": 11023,
      "paths": 10425,
      "exponential": 27258,
      "vacancy": 15619,
      "frustrated": 10206,
      "understands": 19821,
      "finley": 29194,
      "crumpled": 19814,
      "39": 4464,
      "collectors": 14256,
      "健": 1768,
      "##宿": 30352,
      "3": 1017,
      "juventus": 22760,
      "##rled": 27501,
      "shoved": 7468,
      "kern": 22762,
      "[unused921]": 926,
      "petersburg": 8062,
      "madman": 28441,
      "wolverine": 22162,
      "freaks": 29526,
      "originals": 23728,
      "gerhard": 21037,
      "mounds": 19503,
      "##dra": 7265,
      "deutsche": 11605,
      "chef": 10026,
      "elephant": 10777,
      "soviet": 3354,
      "algebra": 11208,
      "wiley": 18825,
      "##艹": 30465,
      "[unused392]": 397,
      "vijay": 17027,
      "metz": 24424,
      "343": 27810,
      "played": 2209,
      "##大": 30336,
      "##anta": 26802,
      "hagen": 24047,
      "really": 2428,
      "filed": 6406,
      "starving": 18025,
      "##ti": 3775,
      "differs": 12980,
      "professionally": 12145,
      "##romatic": 23645,
      "distance": 3292,
      "ץ": 1262,
      "practitioner": 18742,
      "contains": 3397,
      "shone": 14707,
      "send": 4604,
      "peruvian": 15432,
      "note": 3602,
      "sped": 16887,
      "meet": 3113,
      "##ᆫ": 30021,
      "darwin": 11534,
      "fore": 18921,
      "degraded": 26131,
      "##qua": 16211,
      "butter": 12136,
      "correctly": 11178,
      "##vac": 24887,
      "remain": 3961,
      "72": 5824,
      "packard": 24100,
      "penthouse": 22855,
      "hawaiian": 12188,
      "carefully": 5362,
      "##amy": 24079,
      "rc": 22110,
      "paving": 28007,
      "##կ": 29774,
      "broughton": 29187,
      "minsk": 20790,
      "1877": 7557,
      "1829": 11523,
      "focal": 15918,
      "info": 18558,
      "[unused736]": 741,
      "durham": 9296,
      "⺼": 1633,
      "##illon": 20343,
      "money": 2769,
      "acquire": 9878,
      "wta": 21925,
      "groundbreaking": 23222,
      "artworks": 22000,
      "soviets": 15269,
      "hadn": 2910,
      "gavin": 9448,
      "##sław": 23305,
      "dung": 29328,
      "##block": 23467,
      "valentin": 24632,
      "established": 2511,
      "##eley": 22352,
      "##dini": 26039,
      "chet": 25157,
      "cosmic": 14448,
      "ӏ": 1218,
      "consolidate": 24939,
      "##mann": 5804,
      "il": 6335,
      "northwards": 27592,
      "faulkner": 25109,
      "mutant": 15527,
      "hail": 16889,
      "wee": 16776,
      "classroom": 9823,
      "[unused532]": 537,
      "[unused94]": 95,
      "ethiopian": 15101,
      "sylvie": 26009,
      "##nished": 28357,
      "大": 1810,
      "fiance": 19154,
      "alternate": 6585,
      "isla": 25340,
      "importantly": 14780,
      "parallels": 18588,
      "##udy": 20217,
      "crush": 10188,
      "suffers": 17567,
      "ingrid": 22093,
      "city": 2103,
      "guggenheim": 20402,
      "vlad": 19163,
      "exemption": 19621,
      "centers": 6401,
      "wore": 5078,
      "moderately": 17844,
      "bella": 12101,
      "yeah": 3398,
      "caledonian": 27449,
      "}": 1065,
      "lublin": 18967,
      "pleasure": 5165,
      "cynthia": 15809,
      "delivering": 12771,
      "##み": 30204,
      "francs": 24313,
      "ア": 1693,
      "stamford": 22469,
      "oaxaca": 26923,
      "souls": 9293,
      "scrambling": 25240,
      "fiancee": 19455,
      "worthless": 22692,
      "meadow": 13244,
      "patrols": 14703,
      "##laise": 25122,
      "hardware": 8051,
      "ashore": 16145,
      "##mons": 16563,
      "northwest": 4514,
      "bracket": 21605,
      "min": 8117,
      "そ": 1660,
      "##zan": 13471,
      "##rchy": 29389,
      "dial": 13764,
      "##广": 30368,
      "ching": 19992,
      "kettle": 22421,
      "belongings": 20033,
      "wizard": 10276,
      "smoothed": 17966,
      "extent": 6698,
      "prism": 26113,
      "grows": 7502,
      "##art": 8445,
      "##inkles": 28562,
      "purpose": 3800,
      "##tens": 25808,
      "ow": 27593,
      "faded": 8105,
      "fortunately": 14599,
      "2": 1016,
      "trenton": 17148,
      "nur": 27617,
      "convent": 10664,
      "##uber": 21436,
      "##kong": 25460,
      "brody": 19631,
      "bogota": 21240,
      "gangs": 18542,
      "preparing": 8225,
      "##ologist": 8662,
      "sense": 3168,
      "##kir": 23630,
      "gallons": 18501,
      "brooklyn": 6613,
      "##olin": 18861,
      "##gil": 20142,
      "trois": 25527,
      "investigating": 11538,
      "reused": 26513,
      "argument": 6685,
      "continuation": 13633,
      "graders": 23256,
      "##vo": 6767,
      "##ea": 5243,
      "under": 2104,
      "memory": 3638,
      "ᄐ": 1467,
      "[unused153]": 158,
      "##vant": 18941,
      "aston": 14327,
      "intently": 16170,
      "guests": 6368,
      "##ddin": 18277,
      "##ilo": 22360,
      "neutron": 20393,
      "automotive": 12945,
      "mater": 16289,
      "##fighter": 20027,
      "##sco": 9363,
      "tortricidae": 27683,
      "booths": 27612,
      "penetrating": 22391,
      "motivated": 12774,
      "bhutan": 18768,
      "##亻": 30283,
      "2014": 2297,
      "bus": 3902,
      "radiated": 23000,
      "locomotives": 7830,
      "##ulla": 22187,
      "multinational": 20584,
      "roads": 4925,
      "1843": 10075,
      "revive": 17995,
      "deep": 2784,
      "occur": 5258,
      "##ij": 28418,
      "dealings": 24069,
      "1767": 21502,
      "ste": 26261,
      "##ze": 4371,
      "hq": 16260,
      "nicaragua": 15448,
      "docks": 15093,
      "karate": 16894,
      "prevented": 8729,
      "[unused556]": 561,
      "theatre": 3004,
      "amateur": 5515,
      "liberation": 7931,
      "musicals": 20103,
      "benfica": 26542,
      "reykjavik": 28559,
      "introduced": 3107,
      "##ᵇ": 30033,
      "quarterfinals": 9237,
      "neutrality": 21083,
      "sleeper": 24372,
      "sequencing": 24558,
      "##rgh": 27172,
      "ض": 1285,
      "promises": 10659,
      "##⊆": 30138,
      "118": 12963,
      "debuted": 6006,
      "##vao": 24682,
      "concordia": 24982,
      "lip": 5423,
      "1855": 8492,
      "1960s": 4120,
      "counsel": 9517,
      "merritt": 26701,
      "grenada": 29153,
      "[unused774]": 779,
      "##cuit": 28168,
      "70th": 26934,
      "beverly": 12218,
      "bourgeois": 22846,
      "classes": 4280,
      "arguments": 9918,
      "communicated": 24162,
      "haji": 28174,
      "consideration": 9584,
      "nak": 17823,
      "1701": 26059,
      "shooting": 5008,
      "weighed": 12781,
      "methyl": 25003,
      "##hara": 11077,
      "##δ": 29722,
      "mead": 19855,
      "31": 2861,
      "attic": 14832,
      "infants": 16725,
      "islamist": 27256,
      "##kian": 28545,
      "anthropology": 12795,
      "tops": 13284,
      "stigma": 26453,
      "reverend": 10547,
      "inception": 12149,
      "perfectly": 6669,
      "zac": 29250,
      "rusty": 13174,
      "245": 21005,
      "locally": 7246,
      "cocky": 24995,
      "amusing": 19142,
      "cairo": 11096,
      "[unused413]": 418,
      "greenland": 16128,
      "avatar": 22128,
      "##sas": 20939,
      "ₖ": 1565,
      "rush": 5481,
      "electrified": 18042,
      "[unused771]": 776,
      "hog": 27589,
      "fragment": 15778,
      "aristocratic": 19774,
      "goran": 28356,
      "transcribed": 26223,
      "cpu": 17368,
      "italia": 13052,
      "lim": 18525,
      "[unused780]": 785,
      "millennia": 27620,
      "##ξ": 29729,
      "divinity": 16968,
      "attaining": 26615,
      "[unused795]": 800,
      "coats": 15695,
      "kin": 12631,
      "##”": 30059,
      "flourishing": 29571,
      "[unused598]": 603,
      "premises": 10345,
      "20th": 3983,
      "##bread": 27035,
      "##hedron": 26440,
      "##mond": 11442,
      "wright": 6119,
      "[unused648]": 653,
      "##with": 24415,
      "##right": 15950,
      "ζ": 1160,
      "caucasian": 23368,
      "tim": 5199,
      "hungry": 7501,
      "[unused934]": 939,
      "##南": 30311,
      "padre": 28612,
      "lyricist": 19489,
      "cornerstone": 23354,
      "281": 22955,
      "anymore": 4902,
      "dolphin": 17801,
      "##merie": 28677,
      "[unused167]": 172,
      "shaw": 8233,
      "gable": 13733,
      "traversed": 27797,
      "##cis": 22987,
      "sampling": 16227,
      "##tered": 14050,
      "migrated": 13447,
      "warriors": 6424,
      "tq": 28816,
      "##lce": 23314,
      "fumbled": 20054,
      "cart": 11122,
      "1782": 16890,
      "know": 2113,
      "conducted": 4146,
      "##ying": 14147,
      "cub": 21987,
      "ɫ": 1120,
      "[unused273]": 278,
      "islands": 3470,
      "versions": 4617,
      "airs": 14369,
      "##asi": 21369,
      "nanjing": 21455,
      "thugs": 24106,
      "49th": 25726,
      "1764": 21488,
      "novel": 3117,
      "cooler": 14976,
      "2009": 2268,
      "##rissa": 26571,
      "hearings": 19153,
      "landlord": 18196,
      "famine": 15625,
      "hanging": 5689,
      "empress": 10248,
      "grey": 4462,
      "##pton": 15857,
      "wallis": 24029,
      "shouts": 15701,
      "harper": 8500,
      "austria": 5118,
      "juan": 5348,
      "sumner": 23922,
      "##mana": 24805,
      "farms": 8623,
      "ф": 1199,
      "sue": 9790,
      "likeness": 28275,
      "carter": 5708,
      "extensions": 14305,
      "lucknow": 23571,
      "ambient": 17093,
      "slovenian": 16583,
      "biomass": 28148,
      "regatta": 26848,
      "sidewalks": 28386,
      "schooling": 14118,
      "pitted": 25895,
      "rejects": 19164,
      "vial": 28475,
      "suspected": 6878,
      "develop": 4503,
      "##nton": 15104,
      "riff": 24808,
      "ro": 20996,
      "laborers": 23428,
      "proud": 7098,
      "examined": 8920,
      "##ج": 29819,
      "##cker": 9102,
      "名": 1795,
      "11th": 6252,
      "superhuman": 27061,
      "maia": 23478,
      "##ata": 6790,
      "thumb": 7639,
      "wedding": 5030,
      "32": 3590,
      "booked": 17414,
      "cleaned": 12176,
      "nectar": 24816,
      "sterling": 10933,
      "sweetie": 22872,
      "peru": 7304,
      "mart": 20481,
      "##thes": 24138,
      "refugees": 8711,
      "anxious": 11480,
      "##tail": 14162,
      "vow": 19076,
      "adventurous": 29118,
      "##禾": 30453,
      "ochreous": 23474,
      "##‚": 30057,
      "##ages": 13923,
      "fiery": 15443,
      "discount": 19575,
      "09": 5641,
      "oct": 13323,
      "jurgen": 23171,
      "scored": 3195,
      "opposition": 4559,
      "lawsuit": 9870,
      "syntax": 20231,
      "duval": 23929,
      "1659": 28288,
      "1931": 4739,
      "procurement": 21423,
      "##bag": 16078,
      "markers": 16387,
      "facade": 8508,
      "gender": 5907,
      "disappeared": 5419,
      "metal": 3384,
      "##yr": 12541,
      "hive": 26736,
      "victorious": 13846,
      "##edes": 18352,
      "##kling": 20260,
      "quarries": 27069,
      "tale": 6925,
      "##ichi": 11319,
      "##þ": 29670,
      "obligatory": 26471,
      "warrant": 10943,
      "for": 2005,
      "propped": 16863,
      "jaws": 16113,
      "invites": 18675,
      "ounce": 19471,
      "[unused743]": 748,
      "dissatisfaction": 28237,
      "watery": 28259,
      "##atin": 20363,
      "transaction": 12598,
      "ص": 1284,
      "constitute": 12346,
      "##aster": 24268,
      "reuben": 17294,
      "##d": 2094,
      "painfully": 16267,
      "bermuda": 13525,
      "sun": 3103,
      "episodes": 4178,
      "##lide": 24198,
      "wylie": 29152,
      "modify": 19933,
      "##hism": 23108,
      "##arion": 27548,
      "hours": 2847,
      "placement": 11073,
      "constitution": 4552,
      "261": 24441,
      "encountered": 8567,
      "preparations": 12929,
      "##df": 20952,
      "##ice": 6610,
      "wandering": 13071,
      "violet": 8766,
      "##ミ": 30250,
      "nana": 17810,
      "unpaid": 23850,
      "anson": 25435,
      "propulsion": 16404,
      "church": 2277,
      "reside": 13960,
      "##ratic": 23671,
      "collar": 9127,
      "kendall": 14509,
      "##ひ": 30199,
      "backbone": 21505,
      "rene": 10731,
      "apparent": 6835,
      "melville": 20154,
      "transforming": 17903,
      "##isa": 14268,
      "##rag": 29181,
      "132": 14078,
      "sincere": 18006,
      "calcutta": 13419,
      "signs": 5751,
      "hiv": 9820,
      "beard": 10154,
      "maze": 15079,
      "arrangement": 6512,
      "imported": 10964,
      "poverty": 5635,
      "stay": 2994,
      "##64": 21084,
      "shutting": 17521,
      "honneur": 28197,
      "##ruff": 26919,
      "greatest": 4602,
      "compounds": 10099,
      "believed": 3373,
      "fashion": 4827,
      "bisexual": 22437,
      "[unused98]": 99,
      "##man": 2386,
      "rematch": 18229,
      "fixed": 4964,
      "expelled": 10016,
      "prc": 26141,
      "floppy": 28491,
      "entire": 2972,
      "lu": 11320,
      "separating": 14443,
      "ballad": 11571,
      "mind": 2568,
      "sincerity": 23997,
      "vishnu": 17647,
      "lend": 18496,
      "appointments": 14651,
      "bumped": 19030,
      "television": 2547,
      "∇": 1595,
      "vt": 28879,
      "##tte": 4674,
      "bash": 24234,
      "promoting": 7694,
      "bill": 3021,
      "##breaker": 21204,
      "reece": 24227,
      "345": 23785,
      "dinah": 26562,
      "diagnostic": 16474,
      "maurice": 7994,
      "hierarchy": 12571,
      "fractures": 28929,
      "##iman": 18505,
      "##hide": 26100,
      "monsters": 9219,
      "書": 1871,
      "land": 2455,
      "[unused346]": 351,
      "palestinians": 21524,
      "resided": 12427,
      "kilkenny": 17131,
      "shifter": 18189,
      "crown": 4410,
      "day": 2154,
      "##lais": 28704,
      "schubert": 24645,
      "##cock": 13959,
      "touchdown": 7921,
      "о": 1193,
      "##gned": 19225,
      "251": 22582,
      "gliding": 20292,
      "rca": 12639,
      "prop": 17678,
      "##ych": 17994,
      "ghent": 24202,
      "bacon": 11611,
      "invasion": 5274,
      "moderator": 29420,
      "1835": 10150,
      "##quest": 15500,
      "conspicuous": 19194,
      "scarborough": 18603,
      "##lta": 24458,
      "cds": 14340,
      "##si": 5332,
      "making": 2437,
      "bathed": 24614,
      "rob": 6487,
      "expansive": 25145,
      "ya": 8038,
      "hurling": 10839,
      "mandal": 24373,
      "everett": 15160,
      "[unused607]": 612,
      "##cars": 20745,
      "1648": 22533,
      "mri": 27011,
      "contexts": 18046,
      "larry": 6554,
      "##ত": 29898,
      "teaming": 27025,
      "notice": 5060,
      "watershed": 12547,
      "ashland": 24346,
      "che": 18178,
      "vinci": 23765,
      "mint": 12927,
      "epsilon": 28038,
      "##eki": 26576,
      "1926": 4881,
      "rushed": 6760,
      "##ס": 29804,
      "moravian": 28131,
      "housed": 7431,
      "pondered": 28347,
      "donnell": 18016,
      "guinea": 7102,
      "superiority": 19113,
      "broke": 3631,
      "dispatched": 14501,
      "##band": 12733,
      "[unused246]": 251,
      "bothering": 17067,
      "torches": 24711,
      "caucasus": 16512,
      "sympathetic": 13026,
      "combination": 5257,
      "lois": 15815,
      "herman": 11458,
      "structures": 5090,
      "bandages": 27993,
      "loki": 24143,
      "ノ": 1717,
      "sundance": 20140,
      "erin": 11781,
      "granddaughter": 12787,
      "accepting": 10564,
      "mentioning": 18625,
      "た": 1661,
      "subspecies": 11056,
      "##cci": 14693,
      "parcels": 28998,
      "protections": 28548,
      "##ifolia": 29244,
      "blackened": 25788,
      "turkey": 4977,
      "saving": 7494,
      "2011": 2249,
      "mongol": 17450,
      "##♠": 30150,
      "richard": 2957,
      "breed": 8843,
      "‐": 1513,
      "33rd": 20883,
      "##kura": 28260,
      "variability": 28436,
      "##ik": 5480,
      "magnetic": 8060,
      "##uer": 13094,
      "ras": 20710,
      "wavelength": 19934,
      "plant": 3269,
      "voyages": 21993,
      "senators": 10153,
      "michele": 15954,
      "paused": 5864,
      "##dler": 21222,
      "typhoon": 15393,
      "enter": 4607,
      "##lium": 21816,
      "planted": 8461,
      "##haling": 23896,
      "warden": 13745,
      "rom": 17083,
      "nominate": 23388,
      "dry": 4318,
      "##8": 2620,
      "cappella": 23013,
      "stride": 18045,
      "scenario": 11967,
      "cables": 15196,
      "##आ": 29848,
      "##kari": 20224,
      "[unused278]": 283,
      "##shot": 19040,
      "advancing": 10787,
      "marlins": 27055,
      "hunters": 9624,
      "ua": 25423,
      "sa": 7842,
      "meredith": 10635,
      "##ments": 8163,
      "wellington": 8409,
      "breakaway": 26321,
      "belgian": 6995,
      "ah": 6289,
      "##—": 30052,
      "⇒": 1591,
      "shortest": 20047,
      "urging": 14328,
      "thighs": 9222,
      "prior": 3188,
      "##tain": 18249,
      "##mum": 27147,
      "harbor": 6496,
      "carmel": 19443,
      "radha": 26498,
      "permission": 6656,
      "marta": 18950,
      "continuous": 7142,
      "glistening": 25203,
      "dora": 21008,
      "microsoft": 7513,
      "##sd": 16150,
      "jocelyn": 23786,
      "accounting": 9529,
      "duchy": 11068,
      "76": 6146,
      "##ち": 30188,
      "##hof": 14586,
      "##gpur": 25758,
      "##inge": 23496,
      "[unused213]": 218,
      "thrill": 16959,
      "alberta": 7649,
      "pray": 11839,
      "gaines": 28645,
      "one": 2028,
      "necks": 26082,
      "##sz": 17112,
      "cites": 17248,
      "##swick": 27720,
      "crusader": 25237,
      "resolve": 10663,
      "hitler": 8042,
      "salt": 5474,
      "##h": 2232,
      "usb": 18833,
      "jeopardy": 26604,
      "mcgregor": 23023,
      "penitentiary": 29569,
      "strategic": 6143,
      "##rica": 14735,
      "backing": 5150,
      "winds": 7266,
      "elsewhere": 6974,
      "refinery": 21034,
      "jedi": 27273,
      "##tically": 25084,
      "##ო": 29986,
      "laps": 10876,
      "hardest": 18263,
      "##urian": 29091,
      "commemorative": 17524,
      "dragged": 7944,
      "##orous": 25373,
      "##kot": 23342,
      "##wal": 13476,
      "lydia": 14076,
      "237": 23297,
      "阿": 1971,
      "demonstrations": 13616,
      "caves": 10614,
      "fresno": 20840,
      "snyder": 17840,
      "##ading": 23782,
      "ode": 24040,
      "##tite": 23096,
      "##э": 29756,
      "positively": 13567,
      "velvet": 10966,
      "##া": 29914,
      "regimental": 17604,
      "ང": 1427,
      "controllers": 21257,
      "nightmare": 10103,
      "delivery": 6959,
      "zinc": 15813,
      "1628": 28627,
      "galleries": 11726,
      "1715": 22606,
      "term": 2744,
      "kits": 18628,
      "sudan": 10411,
      "chewed": 18362,
      "ufo": 24321,
      "egyptian": 6811,
      "paolo": 14174,
      "seaside": 20276,
      "patients": 5022,
      "abby": 9460,
      "displacement": 13508,
      "lakes": 6597,
      "[unused247]": 252,
      "hides": 17382,
      "projection": 13996,
      "admitting": 17927,
      "ithaca": 27939,
      "##sies": 14625,
      "reelected": 20847,
      "implicit": 24655,
      "forgiven": 24280,
      "##ome": 8462,
      "monastic": 17361,
      "##tford": 26341,
      "balance": 5703,
      "##ן": 29802,
      "proposed": 3818,
      "buffalo": 6901,
      "ə": 1114,
      "anime": 8750,
      "##hus": 9825,
      "intending": 16533,
      "273": 25371,
      "claudio": 19569,
      "platinum": 8899,
      "partners": 5826,
      "mounts": 19363,
      "demolition": 12451,
      "##athy": 17308,
      "stockholm": 8947,
      "##gul": 24848,
      "##cote": 19800,
      "gertrude": 18734,
      "nantes": 25387,
      "orientation": 10296,
      "##bola": 24290,
      "bamboo": 15216,
      "greenville": 20967,
      "simulcast": 20525,
      "calendar": 8094,
      "combining": 11566,
      "999": 25897,
      "normally": 5373,
      "##lick": 25230,
      "acceleration": 16264,
      "legitimacy": 22568,
      "selections": 16310,
      "##rangle": 21476,
      "toulon": 27160,
      "competent": 17824,
      "[unused531]": 536,
      "rave": 23289,
      "##planes": 26634,
      "##פ": 29807,
      "gurney": 25061,
      "lithuanian": 10333,
      "honorary": 5756,
      "axel": 18586,
      "##タ": 30235,
      "nation": 3842,
      "##ttering": 19567,
      "totally": 6135,
      "translating": 22969,
      "briggs": 15487,
      "censorship": 15657,
      "[unused589]": 594,
      "malta": 9933,
      "rectory": 24606,
      "naturalist": 19176,
      "evan": 9340,
      "appearing": 6037,
      "poison": 9947,
      "##戦": 30382,
      "dreadful": 21794,
      "shootout": 18297,
      "##а": 10260,
      "[unused986]": 991,
      "installment": 18932,
      "sixteenth": 14683,
      "partial": 7704,
      "have": 2031,
      "##lets": 13461,
      "lanes": 10914,
      "jett": 22962,
      "strikers": 26049,
      "assemblies": 17720,
      "practically": 8134,
      "aleksandr": 24020,
      "genome": 13458,
      "##oy": 6977,
      "##ali": 11475,
      "interpreted": 10009,
      "woodrow": 23954,
      "hosted": 4354,
      "jade": 12323,
      "teams": 2780,
      "messing": 22308,
      "fiction": 4349,
      "##gate": 5867,
      "playstation": 9160,
      "##rar": 19848,
      "resin": 24604,
      "##pu": 14289,
      "spice": 17688,
      "perry": 6890,
      "fencing": 15962,
      "martini": 24480,
      "increasing": 4852,
      "questions": 3980,
      "sections": 5433,
      "##version": 27774,
      "placing": 6885,
      "homeless": 11573,
      "hong": 4291,
      "##rel": 16570,
      "1986": 3069,
      "##dhi": 19114,
      "##dice": 24598,
      "singleton": 28159,
      "specific": 3563,
      "beta": 8247,
      "leaped": 16900,
      "informing": 21672,
      "peerage": 18760,
      "complicated": 8552,
      "solved": 13332,
      "reasonably": 16286,
      "commits": 27791,
      "##sso": 24137,
      "mortgage": 14344,
      "kim": 5035,
      "plume": 26888,
      "amidst": 17171,
      "guangzhou": 18693,
      "##ior": 25346,
      "barefoot": 22985,
      "sutherland": 14274,
      "stored": 8250,
      "instrumental": 6150,
      "friendships": 28956,
      "[unused616]": 621,
      "duty": 4611,
      "##virus": 23350,
      "##enham": 23580,
      "##achal": 24409,
      "##weiler": 22384,
      "pulls": 8005,
      "roc": 21326,
      "remind": 10825,
      "festival": 2782,
      "ɛ": 1115,
      "reported": 2988,
      "正": 1888,
      "analysts": 18288,
      "##00": 8889,
      "lehigh": 23241,
      "adaptive": 19293,
      "##tr": 16344,
      "outward": 15436,
      "polka": 29499,
      "drones": 24633,
      "uruguayan": 23464,
      "evangelist": 24036,
      "##ood": 17139,
      "25th": 10965,
      "##aver": 22208,
      "##rgy": 22637,
      "yank": 23178,
      "crewe": 22188,
      "青": 1975,
      "minnesota": 5135,
      "carol": 8594,
      "bewildered": 24683,
      "odessa": 19693,
      "dysfunction": 28466,
      "##ales": 23266,
      "singer": 3220,
      "chopper": 28057,
      "alloys": 28655,
      "transient": 25354,
      "smaller": 3760,
      "##ode": 10244,
      "114": 12457,
      "vacant": 10030,
      "##lance": 23078,
      "nuevo": 22250,
      "amore": 26297,
      "expect": 5987,
      "ј": 1214,
      "shale": 18488,
      "modelled": 23364,
      "fallout": 23902,
      "##♯": 30154,
      "##horn": 9769,
      "seasons": 3692,
      "judged": 13224,
      "gdansk": 21942,
      "trolley": 20820,
      "##worthy": 13966,
      "##smith": 21405,
      "mcbride": 18958,
      "ironic": 19313,
      "protagonists": 21989,
      "##dana": 25917,
      "airport": 3199,
      "repaired": 13671,
      "##um": 2819,
      "hickory": 28158,
      "penn": 9502,
      "##ovich": 12303,
      "denote": 19090,
      "vertigo": 28246,
      "operators": 9224,
      "inspiration": 7780,
      "champion": 3410,
      "##pheus": 22809,
      "reginald": 14435,
      "sabre": 22002,
      "congregational": 20809,
      "bump": 16906,
      "lam": 16983,
      "[unused679]": 684,
      "destroyed": 3908,
      "[unused338]": 343,
      "overseen": 22485,
      "##‒": 30050,
      "山": 1831,
      "respiratory": 16464,
      "[unused705]": 710,
      "hare": 14263,
      "[unused946]": 951,
      "##llis": 21711,
      "##ffin": 15379,
      "##athlon": 17563,
      "data": 2951,
      "piece": 3538,
      "hatred": 11150,
      "founding": 4889,
      "heavens": 17223,
      "##dda": 25062,
      "enraged": 18835,
      "##↔": 30115,
      "##阝": 30496,
      "restrict": 21573,
      "ich": 22564,
      "bard": 22759,
      "##section": 29015,
      "##ு": 29933,
      "##sphere": 23874,
      "maids": 29229,
      "asher": 17243,
      "##cala": 25015,
      "##id": 3593,
      "ɒ": 1111,
      "winter": 3467,
      "swings": 18755,
      "mediation": 26435,
      "attain": 18759,
      "আ": 1348,
      "##eger": 26320,
      "##nay": 16741,
      "≡": 1607,
      "ད": 1428,
      "fatigue": 16342,
      "envelope": 11255,
      "exotic": 12564,
      "regiments": 10435,
      "greed": 22040,
      "approached": 5411,
      "debating": 20767,
      "[unused233]": 238,
      "##lington": 18722,
      "swaying": 21826,
      "stockings": 26412,
      "hyper": 23760,
      "阝": 1970,
      "antigen": 28873,
      "prehistoric": 14491,
      "vertex": 19449,
      "epithet": 19626,
      "[unused452]": 457,
      "##lio": 12798,
      "subjected": 13532,
      "##lp": 14277,
      "##ffed": 15388,
      "##ctuated": 25638,
      "acidic": 24171,
      "answer": 3437,
      "nutrients": 20435,
      "drying": 17462,
      "heats": 18559,
      "amnesia": 29222,
      "governed": 9950,
      "scarlett": 20862,
      "##straße": 24967,
      "adopting": 16151,
      "railroad": 4296,
      "nike": 18368,
      "##deh": 25383,
      "empowerment": 23011,
      "teammate": 10809,
      "sketches": 12741,
      "wesleyan": 19858,
      "lighting": 7497,
      "gave": 2435,
      "husbands": 19089,
      "vale": 10380,
      "colombian": 13598,
      "501": 16202,
      "youth": 3360,
      "##方": 30389,
      "participate": 5589,
      "nassau": 14646,
      "limousine": 28012,
      "prefix": 17576,
      "1910": 4976,
      "deities": 17091,
      "gestures": 18327,
      "slips": 17433,
      "##dina": 18979,
      "consultancy": 24853,
      "offense": 10048,
      "exceeds": 23651,
      "helena": 10269,
      "frown": 11330,
      "claire": 6249,
      "1762": 20827,
      "加": 1779,
      "adler": 17969,
      "burmese": 14468,
      "australians": 15739,
      "detainees": 26485,
      "skulls": 21542,
      "##upt": 29441,
      "taboo": 27505,
      "api": 17928,
      "nightly": 22390,
      "mansfield": 15352,
      "bam": 25307,
      "##hima": 16369,
      "sullivan": 7624,
      "##usion": 14499,
      "bollywood": 16046,
      "logistical": 28961,
      "tread": 29449,
      "supporting": 4637,
      "lama": 18832,
      "##polis": 17699,
      "caledonia": 19305,
      "diplomats": 23473,
      "appeal": 5574,
      "folded": 6999,
      "##ton": 2669,
      "mister": 12525,
      "##帝": 30364,
      "lieutenant": 3812,
      "showcases": 27397,
      "##rson": 17753,
      "##ffs": 21807,
      "##nk": 8950,
      "motorway": 13119,
      "ravine": 23188,
      "##icon": 28524,
      "reborn": 24910,
      "##～": 30521,
      "yankee": 17652,
      "gonzaga": 26840,
      "intersecting": 27294,
      "olson": 21583,
      "darby": 25844,
      "trend": 9874,
      "##systems": 29390,
      "searches": 17193,
      "colossal": 29523,
      "site": 2609,
      "voluntary": 10758,
      "##ん": 30217,
      "moscow": 4924,
      "goods": 5350,
      "jc": 29175,
      "##μ": 29728,
      "##oot": 17206,
      "aeronautics": 27459,
      "182": 17691,
      "##ometer": 18721,
      "bachelor": 5065,
      "tangible": 24600,
      "پ": 1302,
      "4a": 26424,
      "ன": 1387,
      "[unused208]": 213,
      "64": 4185,
      "cameras": 8629,
      "possess": 10295,
      "rituals": 13549,
      "##17": 16576,
      "tb": 26419,
      "tugging": 17100,
      "[unused234]": 239,
      "blair": 10503,
      "aerial": 9682,
      "mumbai": 8955,
      "clutch": 15357,
      "discourse": 15152,
      "reassured": 26350,
      "promoter": 15543,
      "anywhere": 5973,
      "libertarian": 19297,
      "##brush": 18623,
      "##raphy": 26228,
      "ふ": 1674,
      "reds": 12281,
      "rejoined": 14311,
      "farmland": 16439,
      "blogs": 23012,
      "equipment": 3941,
      "consecrated": 12299,
      "stirling": 15597,
      "dragoons": 28069,
      "##30": 14142,
      "lamb": 12559,
      "rampage": 29216,
      "teen": 9458,
      "elemental": 19529,
      "##meyer": 24344,
      "adventurer": 29506,
      "ego": 13059,
      "reacted": 14831,
      "installation": 8272,
      "benefit": 5770,
      "nueva": 24536,
      "##rative": 18514,
      "5th": 4833,
      "circulation": 9141,
      "hesitantly": 24626,
      "diocese": 5801,
      "##dget": 24291,
      "bowled": 19831,
      "toured": 7255,
      "1975": 3339,
      "porn": 22555,
      "hub": 9594,
      "panel": 5997,
      "california": 2662,
      "freelance": 15919,
      "293": 26953,
      "supreme": 4259,
      "commotion": 23960,
      "council": 2473,
      "domingo": 15586,
      "filmmaker": 12127,
      "forced": 3140,
      "stilled": 22791,
      "adamant": 29502,
      "youths": 19634,
      "hangs": 17991,
      "##uously": 28078,
      "refers": 5218,
      "##ம": 29925,
      "laboratory": 5911,
      "betsy": 22396,
      "gains": 12154,
      "artemis": 19063,
      "transformed": 8590,
      "destiny": 10461,
      "##dam": 17130,
      "goethe": 23173,
      "##qi": 14702,
      "camps": 7958,
      "inspection": 10569,
      "adams": 5922,
      "bombings": 20109,
      "polynomial": 17505,
      "towel": 10257,
      "claws": 10702,
      "freight": 8441,
      "surpassed": 15602,
      "##kie": 11602,
      "gilmore": 22999,
      "ambulance": 10771,
      "hurst": 26405,
      "misty": 15167,
      "acceptable": 11701,
      "ability": 3754,
      "truncated": 25449,
      "desert": 5532,
      "rubs": 28860,
      "1853": 8933,
      "stumble": 21811,
      "##―": 30053,
      "omitted": 16647,
      "flight": 3462,
      "divide": 11443,
      "rallied": 24356,
      "embarrassing": 16436,
      "totaled": 23596,
      "iaaf": 21259,
      "ب": 1271,
      "salisbury": 13817,
      "##stad": 16917,
      "watering": 25813,
      "boroughs": 21413,
      "client": 7396,
      "peacock": 18931,
      "interrupt": 17938,
      "##etto": 20082,
      "trojan": 23445,
      "tao": 20216,
      "sex": 3348,
      "standing": 3061,
      "detail": 6987,
      "奈": 1814,
      "bond": 5416,
      "precious": 9062,
      "annexed": 13291,
      "var": 13075,
      "##sov": 23230,
      "regulars": 24945,
      "pleading": 16418,
      "slang": 21435,
      "barnsley": 25139,
      "avon": 16131,
      "uzbekistan": 17065,
      "students": 2493,
      "themselves": 3209,
      "tarzan": 24566,
      "ernst": 10728,
      "zack": 13658,
      "admits": 14456,
      "kade": 26159,
      "explosion": 7738,
      "flanked": 15874,
      "®": 1079,
      "addicted": 23042,
      "incurred": 22667,
      "helpless": 13346,
      "litter": 19070,
      "##vier": 14356,
      "##ados": 28118,
      "recently": 3728,
      "activity": 4023,
      "mp": 6131,
      "campeonato": 17675,
      "##cel": 29109,
      "promoters": 26512,
      "scars": 13521,
      "breaths": 12938,
      "regarding": 4953,
      "birmingham": 6484,
      "frs": 25188,
      "##den": 4181,
      "1950": 3925,
      "alonso": 17649,
      "courthouse": 10816,
      "privatization": 23966,
      "evaluating": 23208,
      "##nto": 13663,
      "##mous": 27711,
      "freedoms": 22467,
      "threatens": 17016,
      "lion": 7006,
      "##hong": 19991,
      "marching": 10998,
      "acceptance": 9920,
      "れ": 1688,
      "##dna": 28911,
      "congratulations": 23156,
      "supermarket": 17006,
      "weaker": 15863,
      "reprised": 22598,
      "sandra": 12834,
      "debts": 13930,
      "database": 7809,
      "faust": 24021,
      "ensured": 16316,
      "##vies": 25929,
      "media": 2865,
      "drifted": 10070,
      "exhibiting": 22922,
      "outlines": 22106,
      "ordered": 3641,
      "crippled": 24433,
      "housekeeper": 22583,
      "1683": 27414,
      "isaiah": 18850,
      "midday": 22878,
      "alternative": 4522,
      "suck": 11891,
      "rack": 14513,
      "bolsheviks": 28755,
      "intrigued": 18896,
      "root": 7117,
      "cracked": 9630,
      "laundry": 14533,
      "ellie": 10707,
      "productions": 5453,
      "quentin": 15969,
      "offence": 15226,
      "pointedly": 28713,
      "##pad": 15455,
      "habitats": 10746,
      "##grass": 19673,
      "mecklenburg": 22007,
      "pronouns": 26028,
      "blacksmith": 20987,
      "##ptive": 24971,
      "##ntes": 17340,
      "bluff": 14441,
      "independently": 9174,
      "##life": 15509,
      "ь": 1207,
      "musica": 21137,
      "advocates": 13010,
      "malaga": 27382,
      "alain": 15654,
      "1721": 27689,
      "peer": 8152,
      "composer": 4543,
      "bragg": 23678,
      "##maker": 8571,
      "广": 1842,
      "divorced": 9196,
      "utilized": 12550,
      "##mart": 22345,
      "watford": 21740,
      "ramsey": 15092,
      "##wu": 16050,
      "##ping": 4691,
      "cain": 11557,
      "curiosity": 10628,
      "expansion": 4935,
      "figure": 3275,
      "cowboy": 11762,
      "iii": 3523,
      "mouse": 8000,
      "minions": 28071,
      "resume": 13746,
      "respected": 9768,
      "excerpt": 28142,
      "barrier": 8803,
      "saudi": 8174,
      "islam": 7025,
      "911": 19989,
      "electronically": 28926,
      "deportation": 23702,
      "illustrates": 24899,
      "##raphic": 20721,
      "surgical": 11707,
      "appropriately": 23263,
      "punching": 19477,
      "converts": 19884,
      "reign": 5853,
      "taxation": 14952,
      "approximately": 3155,
      "ᵘ": 1506,
      "islamic": 5499,
      "beatrice": 14807,
      "amin": 24432,
      "character": 2839,
      "barrels": 13826,
      "sacked": 14159,
      "##ラ": 30257,
      "gunnery": 27919,
      "format": 4289,
      "spicy": 25482,
      "##ot": 4140,
      "amongst": 5921,
      "ae": 29347,
      "zeke": 18270,
      "##ool": 13669,
      "bishop": 3387,
      "requirement": 9095,
      "[unused508]": 513,
      "dc": 5887,
      "sweetly": 22557,
      "wrenched": 26971,
      "flung": 14016,
      "pastor": 9220,
      "underwear": 14236,
      "pier": 10356,
      "cary": 20533,
      "shaggy": 25741,
      "[unused142]": 147,
      "[unused89]": 90,
      "contests": 15795,
      "[unused9]": 10,
      "##±": 29657,
      "revisited": 24354,
      "worried": 5191,
      "northumberland": 16205,
      "kgb": 25467,
      "##moral": 22049,
      "clair": 17936,
      "knots": 9439,
      "pastry": 27060,
      "forgetting": 17693,
      "mlb": 10901,
      "##imum": 28591,
      "##ala": 7911,
      "vector": 9207,
      "##own": 12384,
      "pleaded": 12254,
      "melbourne": 4940,
      "screenwriter": 11167,
      "tamara": 21772,
      "termed": 12061,
      "brushes": 22569,
      "devils": 13664,
      "tai": 13843,
      "##thermal": 23367,
      "almighty": 26668,
      "##nese": 14183,
      "composition": 5512,
      "##pg": 26952,
      "look": 2298,
      "stout": 18890,
      "captured": 4110,
      "flopped": 24723,
      "missy": 25019,
      "wyatt": 12986,
      "distrust": 29245,
      "badly": 6649,
      "clung": 14752,
      "canterbury": 9976,
      "pensacola": 26073,
      "##pel": 11880,
      "commerce": 6236,
      "milwaukee": 9184,
      "perspective": 7339,
      "1788": 15622,
      "disgusting": 19424,
      "##sto": 16033,
      "alfa": 22989,
      "department": 2533,
      "lace": 12922,
      "oracle": 14721,
      "acute": 11325,
      "##lini": 22153,
      "##lar": 8017,
      "fledgling": 25954,
      "sweets": 26844,
      "##keeping": 18321,
      "expanded": 4423,
      "drop": 4530,
      "specializing": 14055,
      "##н": 18947,
      "[unused462]": 467,
      "technical": 4087,
      "charged": 5338,
      "duff": 21019,
      "##dick": 24066,
      "##inda": 23938,
      "##ogenic": 24278,
      "possession": 6664,
      "aground": 29406,
      "consul": 11801,
      "[unused298]": 303,
      "##inian": 15830,
      "andhra": 14065,
      "##vocation": 19152,
      "[unused10]": 11,
      "##aring": 22397,
      "enemies": 6716,
      "מ": 1255,
      "occasion": 6686,
      "reserve": 3914,
      "centred": 16441,
      "##ob": 16429,
      "thousands": 5190,
      "##व": 29871,
      "golden": 3585,
      "auschwitz": 24363,
      "|": 1064,
      "##bed": 8270,
      "valve": 10764,
      "[unused873]": 878,
      "tacoma": 22954,
      "benin": 21164,
      "san": 2624,
      "##rill": 24714,
      "##秋": 30455,
      "orb": 19607,
      "##ero": 10624,
      "##elia": 13902,
      "michael": 2745,
      "##jic": 25008,
      "nathaniel": 13961,
      "isle": 8842,
      "gallo": 25624,
      "##ores": 16610,
      "mainstream": 7731,
      "orthogonal": 28721,
      "poised": 22303,
      "afl": 10028,
      "##ese": 6810,
      "##lism": 28235,
      "[unused706]": 711,
      "heavenly": 16581,
      "underwood": 22751,
      "##hopper": 27330,
      "shine": 12342,
      "##utive": 28546,
      "shining": 9716,
      "yorkshire": 7018,
      "outfits": 22054,
      "##ship": 9650,
      "##ね": 30196,
      "新": 1862,
      "##জ": 29894,
      "geo": 20248,
      "numb": 15903,
      "economics": 5543,
      "##mara": 28225,
      "##orescence": 20030,
      "steps": 4084,
      "proficiency": 26293,
      "corpses": 18113,
      "##х": 29750,
      "cruise": 8592,
      "stakes": 7533,
      "naga": 26539,
      "##か": 30177,
      "baltimore": 6222,
      "pandit": 29331,
      "fleming": 13779,
      "regeneration": 20045,
      "loving": 8295,
      "roderick": 28326,
      "##iner": 26455,
      "serra": 22737,
      "provisional": 10864,
      "axis": 8123,
      "##nged": 21558,
      "oakland": 9182,
      "grasped": 15517,
      "rub": 14548,
      "katy": 17870,
      "medical": 2966,
      "awoke": 19179,
      "rutgers": 18607,
      "##zo": 6844,
      "depend": 12530,
      "rafe": 15819,
      "wolfgang": 13865,
      "[unused240]": 245,
      "felipe": 17095,
      "ट": 1320,
      "##boys": 24916,
      "differentiate": 21032,
      "ར": 1434,
      "##ivision": 24607,
      "seduction": 26962,
      "simultaneously": 7453,
      "ᄆ": 1459,
      "cornerback": 26857,
      "oval": 9242,
      "zhu": 15503,
      "attempts": 4740,
      "##rai": 14995,
      "overwhelming": 10827,
      "johannes": 12470,
      "國": 1800,
      "mendez": 28950,
      "##tino": 25690,
      "nodes": 14164,
      "billed": 14843,
      "organised": 7362,
      "##lkirk": 23913,
      "pills": 15345,
      "sellers": 19041,
      "buckley": 17898,
      "f1": 20069,
      "transit": 6671,
      "rhetoric": 17871,
      "annapolis": 24889,
      "##dington": 21504,
      "lays": 19764,
      "solemnly": 26294,
      "representations": 15066,
      "20s": 27074,
      "kerman": 24500,
      "volga": 26459,
      "syndicated": 13889,
      "reductions": 25006,
      "technologies": 6786,
      "breakup": 19010,
      "##¬": 29655,
      "ale": 15669,
      "cooks": 26929,
      "##མ": 29968,
      "mammals": 11993,
      "comment": 7615,
      "complexion": 28838,
      "bolt": 10053,
      "gunslinger": 29274,
      "dim": 11737,
      "##glio": 29480,
      "jarvis": 21072,
      "syndicate": 16229,
      "noelle": 22336,
      "candy": 9485,
      "patna": 29565,
      "##aceae": 18339,
      "missions": 6416,
      "inward": 20546,
      "store": 3573,
      "mundane": 24684,
      "##teacher": 24741,
      "ち": 1662,
      "grassy": 22221,
      "arthur": 4300,
      "slower": 12430,
      "##ɲ": 29689,
      "gestured": 11574,
      "ratings": 8599,
      "##kney": 26993,
      "lifespan": 26462,
      "##ington": 7853,
      "hornet": 26795,
      "larsen": 20094,
      "crack": 8579,
      "quicker": 19059,
      "##naut": 24619,
      "olaf": 20514,
      "bricks": 14219,
      "parker": 6262,
      "uncomfortable": 8796,
      "pie": 11345,
      "##gration": 29397,
      "springs": 6076,
      "##ith": 8939,
      "ℓ": 1577,
      "luca": 15604,
      "##¾": 29665,
      "stretching": 10917,
      "discus": 26047,
      "silent": 4333,
      "hooker": 17074,
      "orderly": 23589,
      "barry": 6287,
      "事": 1751,
      "pharaoh": 22089,
      "decade": 5476,
      "quake": 27785,
      "lafayette": 14425,
      "novels": 6002,
      "regulated": 12222,
      "death": 2331,
      "[unused236]": 241,
      "##opa": 29477,
      "interned": 26345,
      "michel": 8709,
      "kenyan": 20428,
      "booth": 9065,
      "erika": 24900,
      "テ": 1713,
      "chico": 22136,
      "charge": 3715,
      "philanthropist": 15246,
      "hydroelectric": 18541,
      "1757": 22621,
      "associate": 5482,
      "lilly": 14765,
      "ז": 1247,
      "shielding": 25553,
      "##girl": 15239,
      "[unused615]": 620,
      "india": 2634,
      "crowned": 10249,
      "counters": 24094,
      "deed": 15046,
      "##朝": 30400,
      "sunglasses": 17072,
      "causeway": 23336,
      "tendencies": 20074,
      "trends": 12878,
      "road": 2346,
      "maestro": 25270,
      "crore": 21665,
      "marvin": 13748,
      "grove": 7676,
      "vacuum": 11641,
      "silas": 18553,
      "原": 1787,
      "viaduct": 20596,
      "doses": 21656,
      "##usa": 10383,
      "##oz": 18153,
      "gotta": 10657,
      "featured": 2956,
      "ang": 17076,
      "certification": 10618,
      "panting": 15601,
      "##イ": 30221,
      "hamlets": 21631,
      "bowls": 15220,
      "sheer": 11591,
      "marijuana": 16204,
      "##tao": 28555,
      "uta": 28981,
      "hugo": 9395,
      "ne": 11265,
      "ᴺ": 1494,
      "intimidating": 24439,
      "oaks": 13396,
      "dictator": 21237,
      "dioxide": 14384,
      "##bber": 29325,
      "zodiac": 28501,
      "flex": 23951,
      "factories": 11123,
      "sweden": 4701,
      "32nd": 20628,
      "statement": 4861,
      "appearances": 3922,
      "learnt": 20215,
      "bridget": 19218,
      "##erre": 28849,
      "bono": 23648,
      "1654": 27445,
      "[unused621]": 626,
      "acquainted": 19056,
      "arnold": 7779,
      "dressed": 5102,
      "backup": 10200,
      "benefactor": 27398,
      "blocks": 5991,
      "court": 2457,
      "london": 2414,
      "##士": 30333,
      "[unused87]": 88,
      "harlan": 24276,
      "asteroid": 12175,
      "applications": 5097,
      "friendship": 6860,
      "wales": 3575,
      "##isation": 6648,
      "pages": 5530,
      "##quil": 26147,
      "showtime": 23811,
      "organs": 11595,
      "##rked": 19849,
      "graphs": 19287,
      "ɕ": 1113,
      "[unused626]": 631,
      "inclusion": 10502,
      "inhibition": 23586,
      "elegant": 11552,
      "mahal": 27913,
      "bloody": 6703,
      "[unused492]": 497,
      "apologetic": 29352,
      "redundant": 21707,
      "parties": 4243,
      "colonists": 15526,
      "talking": 3331,
      "worn": 6247,
      "kings": 5465,
      "sophie": 8234,
      "wrong": 3308,
      "calming": 23674,
      "##lok": 29027,
      "gaelic": 11196,
      "dishes": 10447,
      "jennifer": 7673,
      "##bba": 22414,
      "grin": 5861,
      "##cles": 18954,
      "1655": 28438,
      "deadline": 15117,
      "storytelling": 20957,
      "fergus": 21023,
      "[unused568]": 573,
      "і": 1213,
      "##bu": 8569,
      "tiger": 6816,
      "recommendation": 12832,
      "ein": 16417,
      "gothic": 7788,
      "loan": 5414,
      "milky": 21582,
      "cumbria": 25559,
      "charts": 6093,
      "⺩": 1632,
      "##ර": 29941,
      "naming": 10324,
      "arrange": 13621,
      "##hedral": 27310,
      "ideas": 4784,
      "##sey": 7952,
      "broadway": 5934,
      "aboard": 7548,
      "chases": 29515,
      "approve": 14300,
      "scrubbed": 27820,
      "坂": 1803,
      "erosion": 14173,
      "slaughtered": 23044,
      "kevin": 4901,
      "rides": 12271,
      "―": 1518,
      "ballet": 7250,
      "nicely": 19957,
      "khorasan": 23225,
      "م": 1295,
      "fields": 4249,
      "predecessor": 8646,
      "unrelated": 15142,
      "pune": 16920,
      "budget": 5166,
      "toy": 9121,
      "a1": 17350,
      "bates": 11205,
      "##zy": 9096,
      "acids": 12737,
      "##word": 18351,
      "##evic": 17726,
      "armando": 26716,
      "giants": 7230,
      "halves": 23672,
      "gets": 4152,
      "moffat": 28528,
      "##hip": 5605,
      "jimi": 27624,
      "##rons": 28212,
      "disguised": 17330,
      "monitoring": 8822,
      "flinch": 23224,
      "news": 2739,
      "spectrum": 8674,
      "offences": 18421,
      "knob": 16859,
      "annex": 17827,
      "##tted": 16190,
      "”": 1524,
      "nc": 13316,
      "retired": 3394,
      "shoving": 15866,
      "trigger": 9495,
      "##less": 3238,
      "##mp": 8737,
      "carmen": 11425,
      "tube": 7270,
      "frankie": 12784,
      "bog": 22132,
      "wentworth": 20572,
      "carbonate": 26427,
      "##urg": 12514,
      "surreal": 16524,
      "underlying": 10318,
      "shy": 11004,
      "zones": 10019,
      "grouped": 15131,
      "receptionist": 23775,
      "immortals": 26796,
      "charges": 5571,
      "killed": 2730,
      "perfume": 17013,
      "essay": 9491,
      "##§": 29650,
      ")": 1007,
      "encouragement": 15846,
      "front": 2392,
      "depths": 11143,
      "bryson": 26845,
      "gangster": 20067,
      "fragile": 13072,
      "##ably": 8231,
      "grim": 11844,
      "harmonica": 16527,
      "eddy": 16645,
      "addiction": 13449,
      "exceeding": 17003,
      "aquino": 24183,
      "carriers": 11363,
      "vaughan": 14461,
      "##thal": 24090,
      "[unused826]": 831,
      "##lena": 20844,
      "teaches": 12011,
      "departing": 15971,
      "##oted": 27428,
      "beaver": 13570,
      "bronze": 4421,
      "williamsburg": 26366,
      "synthesizer": 13564,
      "##29": 24594,
      "150": 5018,
      "viola": 10482,
      "##nally": 26827,
      "alistair": 23752,
      "amazement": 21606,
      "[unused123]": 128,
      "olds": 19457,
      "provoke": 27895,
      "reagan": 11531,
      "creates": 9005,
      "magnificent": 12047,
      "roasted": 28115,
      "retailers": 16629,
      "treaty": 5036,
      "finish": 3926,
      "##ivism": 22486,
      "tian": 23401,
      "tori": 23413,
      "drown": 19549,
      "##bolic": 18647,
      "bellowed": 27386,
      "loss": 3279,
      "##ented": 14088,
      "rural": 3541,
      "disagreed": 18335,
      "semantic": 21641,
      "व": 1335,
      "##cies": 9243,
      "##ani": 7088,
      "poster": 13082,
      "##ctors": 24817,
      "hint": 9374,
      "involved": 2920,
      "balancing": 20120,
      "dogg": 28844,
      "ե": 1223,
      "higher": 3020,
      "mapped": 17715,
      "fay": 23201,
      "average": 2779,
      "commonly": 4141,
      "pushing": 6183,
      "##am": 3286,
      "##eran": 23169,
      "pri": 26927,
      "stabbed": 13263,
      "winced": 15574,
      "commanders": 11437,
      "spirit": 4382,
      "strike": 4894,
      "relationship": 3276,
      "tracks": 3162,
      "mba": 15038,
      "##wice": 23425,
      "accidentally": 9554,
      "decker": 20946,
      "glowed": 16497,
      "touching": 7244,
      "ecology": 13517,
      "harlem": 14864,
      "wii": 16568,
      "specialising": 23315,
      "曲": 1870,
      "copeland": 27303,
      "soaked": 13077,
      "##tails": 22081,
      "[unused926]": 931,
      "proved": 4928,
      "nearer": 20388,
      "manifested": 24906,
      "baronet": 8693,
      "kazakhstan": 11769,
      "concentrated": 8279,
      "jameson": 22324,
      "salman": 28542,
      "125": 8732,
      "eggs": 6763,
      "clandestine": 24450,
      "puck": 22900,
      "independent": 2981,
      "conqueror": 25466,
      "##50": 12376,
      "thump": 21324,
      "institute": 2820,
      "cyril": 16049,
      "feared": 8615,
      "battista": 28422,
      "##zie": 14272,
      "escort": 8620,
      "##te": 2618,
      "##neo": 23585,
      "##hui": 20552,
      "behind": 2369,
      "stresses": 23253,
      "−": 1597,
      "##lius": 15513,
      "gaga": 23332,
      "rockies": 22366,
      "predictions": 20932,
      "eli": 12005,
      "galway": 14370,
      "hectare": 20406,
      "suppression": 16341,
      "hermit": 24308,
      "stevenson": 13636,
      "editions": 6572,
      "yeomanry": 26883,
      "redwood": 27552,
      "clearly": 4415,
      "venezuelan": 15332,
      "enoch": 28178,
      "overgrown": 26433,
      "##rkin": 26891,
      "##coe": 16288,
      "ezekiel": 28743,
      "handel": 21465,
      "##ھ": 29844,
      "editor": 3559,
      "detailed": 6851,
      "disks": 23999,
      "##li": 3669,
      "##nne": 10087,
      "advantages": 12637,
      "lease": 10084,
      "amplitude": 22261,
      "##ner": 3678,
      "spitfire": 28323,
      "jillian": 27286,
      "began": 2211,
      "accountable": 26771,
      "187": 19446,
      "##ᆼ": 30025,
      "amazon": 9733,
      "gold": 2751,
      "hayden": 13872,
      "railways": 7111,
      "truck": 4744,
      "spawned": 18379,
      "duck": 9457,
      "formulated": 19788,
      "pixel": 22138,
      "quay": 21048,
      "plains": 8575,
      "wisconsin": 5273,
      "millionaire": 19965,
      "1987": 3055,
      "##66": 28756,
      "##iza": 21335,
      "##bid": 17062,
      "pike": 12694,
      "felicity": 27357,
      "cleric": 29307,
      "remotely": 19512,
      "clements": 28572,
      "##phic": 17926,
      "treasurer": 10211,
      "blackburn": 13934,
      "isis": 18301,
      "innocence": 12660,
      "overland": 21400,
      "mx": 25630,
      "pause": 8724,
      "##rrie": 22155,
      "segments": 9214,
      "malice": 28238,
      "ᅴ": 1482,
      "squealed": 26175,
      "translucent": 22897,
      "were": 2020,
      "[unused220]": 225,
      "roughly": 5560,
      "straight": 3442,
      "##dara": 25329,
      "alphabet": 12440,
      "demand": 5157,
      "concentration": 6693,
      "worrying": 15366,
      "relevant": 7882,
      "##eyer": 20211,
      "coward": 16592,
      "applicable": 12711,
      "[unused242]": 247,
      "bernhard": 21432,
      "philippe": 11169,
      "ramsay": 19460,
      "conservation": 5680,
      "##भ": 29866,
      "cuckoo": 29010,
      "[unused169]": 174,
      "chooses": 15867,
      "blossoms": 28766,
      "defective": 28829,
      "₆": 1553,
      "abyss": 22159,
      "flyer": 23821,
      "humour": 17211,
      "whose": 3005,
      "poznan": 18320,
      "##香": 30505,
      "readings": 15324,
      "bedrooms": 18390,
      "length": 3091,
      "determination": 9128,
      "inflation": 14200,
      "provision": 9347,
      "historic": 3181,
      "御": 1847,
      "preach": 25250,
      "terrible": 6659,
      "1991": 2889,
      "ranking": 5464,
      "frontman": 21597,
      "widespread": 6923,
      "knocking": 10591,
      "arthritis": 27641,
      "retirement": 5075,
      "510": 23475,
      "compose": 17202,
      "floors": 8158,
      "psychology": 6825,
      "distinguish": 10782,
      "naomi": 12806,
      "inspector": 7742,
      "poke": 26202,
      "##rift": 16338,
      "facilitated": 19601,
      "bey": 20289,
      "attending": 7052,
      "snout": 17291,
      "stature": 21120,
      "dated": 6052,
      "cara": 14418,
      "##oof": 21511,
      "scratches": 25980,
      "##lines": 12735,
      "chili": 20238,
      "rotary": 16933,
      "tasks": 8518,
      "debated": 15268,
      "falcons": 14929,
      "nape": 23634,
      "expression": 3670,
      "point": 2391,
      "อ": 1421,
      "##nor": 12131,
      "[unused977]": 982,
      "symbolic": 12613,
      "sinister": 16491,
      "peers": 12746,
      "uv": 23068,
      "huntsville": 28492,
      "humiliating": 28284,
      "##tma": 29418,
      "[unused264]": 269,
      "durga": 28746,
      "variant": 8349,
      "recipe": 17974,
      "protested": 11456,
      "##mation": 28649,
      "bertha": 25079,
      "halls": 9873,
      "cassette": 13903,
      "##ven": 8159,
      "এ": 1351,
      "risen": 13763,
      "leland": 27134,
      "##tial": 20925,
      "taylor": 4202,
      "##ɡ": 29682,
      "reich": 14365,
      "##mut": 28120,
      "potentially": 9280,
      "##iy": 28008,
      "criticism": 6256,
      "conflicting": 19326,
      "ace": 9078,
      "ニ": 1716,
      "greenhouse": 16635,
      "##ythe": 26688,
      "continued": 2506,
      "hesitant": 20221,
      "expensive": 6450,
      "##ᄐ": 30003,
      "manufactures": 22027,
      "##hem": 29122,
      "##lles": 20434,
      "carrot": 25659,
      "impatient": 17380,
      "favorites": 20672,
      "verlag": 14552,
      "northeast": 4794,
      "heavily": 4600,
      "##unced": 22392,
      "gust": 26903,
      "tatum": 25913,
      "ribs": 10335,
      "expressive": 22570,
      "revolving": 24135,
      "ratio": 6463,
      "descriptions": 13271,
      "house": 2160,
      "emerald": 14110,
      "conversion": 7584,
      "mangrove": 29340,
      "umbrella": 12977,
      "steamer": 18027,
      "spartak": 28560,
      "##forms": 22694,
      "duo": 6829,
      "differentiation": 20582,
      "tragedy": 10576,
      "basha": 26074,
      "titled": 4159,
      "parkinson": 20310,
      "friction": 15012,
      "aside": 4998,
      "pity": 12063,
      "expressed": 5228,
      "banners": 23562,
      "spawn": 25645,
      "install": 16500,
      "shovel": 24596,
      "huntington": 16364,
      "propellers": 23405,
      "cellar": 15423,
      "##med": 7583,
      "publishes": 12466,
      "##xious": 25171,
      "weaver": 14077,
      "##ways": 14035,
      "tandem": 18231,
      "seville": 18983,
      "##⅓": 30109,
      "large": 2312,
      "eastenders": 28936,
      "colbert": 23928,
      "relaxing": 19613,
      "##eration": 16754,
      "##sing": 7741,
      "interpreter": 19555,
      "facility": 4322,
      "daughter": 2684,
      "##ր": 29784,
      "picking": 8130,
      "protests": 8090,
      "[unused320]": 325,
      "chambers": 8477,
      "[unused425]": 430,
      "ii": 2462,
      "dupont": 22848,
      "ralph": 6798,
      "bulldog": 28628,
      "biological": 6897,
      "concurrency": 24154,
      "directed": 2856,
      "[unused565]": 570,
      "insulted": 23637,
      "sally": 8836,
      "grille": 26192,
      "commended": 22429,
      "##2": 2475,
      "messenger": 11981,
      "pal": 14412,
      "「": 1641,
      "vibrations": 22755,
      "##vale": 17479,
      "[unused526]": 531,
      "evergreen": 16899,
      "##rell": 16230,
      "##ias": 7951,
      "良": 1938,
      "indicted": 21801,
      "##hiff": 25798,
      "sweatshirt": 28095,
      "rune": 23276,
      "cap": 6178,
      "##fu": 11263,
      "421": 29403,
      "penetration": 20015,
      "brushed": 7765,
      "harriet": 14207,
      "cares": 14977,
      "ships": 3719,
      "##hosis": 25229,
      "factors": 5876,
      "##ale": 9453,
      "1851": 8792,
      "fm": 4718,
      "situation": 3663,
      "ones": 3924,
      "##33": 22394,
      "visits": 7879,
      "pasha": 14292,
      "assistance": 5375,
      "##inates": 28184,
      "merry": 12831,
      "into": 2046,
      "##aq": 20784,
      "mascara": 27700,
      "disrupt": 23217,
      "sings": 10955,
      "literature": 3906,
      "telegram": 23921,
      "55": 4583,
      "appleton": 26050,
      "sanctioned": 14755,
      "toes": 10393,
      "##劉": 30303,
      "tenth": 7891,
      "##lak": 23451,
      "patrol": 6477,
      "piled": 17835,
      "acquaintance": 18363,
      "thoroughly": 12246,
      "昭": 1868,
      "##ists": 5130,
      "laureate": 17656,
      "1990s": 4134,
      "stirring": 18385,
      "inverse": 19262,
      "-": 1011,
      "##bos": 15853,
      "speak": 3713,
      "simulations": 24710,
      "performances": 4616,
      "bitter": 8618,
      "masonry": 18103,
      "ken": 6358,
      "owner": 3954,
      "##loaded": 17468,
      "issues": 3314,
      "enabling": 12067,
      "ulysses": 22784,
      "hove": 25215,
      "##athan": 29246,
      "circuits": 13782,
      "##zai": 25290,
      "whitehall": 28361,
      "leader": 3003,
      "##車": 30480,
      "##vian": 18073,
      "grants": 8624,
      "barnet": 26864,
      "celebrated": 6334,
      "engravings": 28611,
      "choirs": 24743,
      "dukes": 16606,
      "##rade": 13662,
      "##sby": 14478,
      "affect": 7461,
      "greatly": 6551,
      "##stones": 29423,
      "reflections": 16055,
      "hertfordshire": 18889,
      "##ך": 29797,
      "##樹": 30410,
      "full": 2440,
      "soldier": 5268,
      "##anor": 27869,
      "170": 10894,
      "##す": 30184,
      "accusations": 13519,
      "##ris": 6935,
      "alright": 10303,
      "##rdan": 26992,
      "amos": 13744,
      "warp": 24136,
      "percival": 27832,
      "seeming": 16064,
      "##і": 29760,
      "cathy": 18305,
      "spins": 23371,
      "conceded": 15848,
      "##onis": 27296,
      "renew": 20687,
      "155": 14168,
      "epidemic": 16311,
      "benign": 28378,
      "persistence": 28297,
      "[unused121]": 126,
      "disciplined": 28675,
      "##uter": 19901,
      "par": 11968,
      "154": 16666,
      "inadvertently": 21089,
      "tropical": 5133,
      "aroma": 23958,
      "excluded": 12421,
      "1852": 8784,
      "speechless": 25146,
      "titanic": 20753,
      "democrat": 7672,
      "molten": 23548,
      "johanna": 21498,
      "27": 2676,
      "representation": 6630,
      "177": 18118,
      "##ret": 13465,
      "dormant": 22170,
      "trucks": 9322,
      "[unused254]": 259,
      "##vel": 15985,
      "inscription": 9315,
      "acoustic": 6490,
      "behold": 27541,
      "417": 27519,
      "arbor": 19679,
      "##lain": 15987,
      "zane": 6944,
      "crambidae": 21585,
      "shay": 18789,
      "gaining": 8550,
      "barber": 13362,
      "tied": 5079,
      "1638": 27497,
      "limit": 5787,
      "stable": 6540,
      "grass": 5568,
      "inclusive": 18678,
      "police": 2610,
      "monmouth": 20433,
      "congregations": 16850,
      "wires": 14666,
      "halo": 17201,
      "leyte": 27214,
      "otherwise": 4728,
      "longest": 6493,
      "[unused737]": 742,
      "adolf": 12500,
      "manipulation": 16924,
      "interfered": 28976,
      "institutions": 4896,
      "constantinople": 11776,
      "##rand": 13033,
      "absorbed": 9063,
      "[unused534]": 539,
      "ad": 4748,
      "companies": 3316,
      "crossed": 4625,
      "papyrus": 29575,
      "mosques": 21922,
      "##lyn": 9644,
      "jane": 4869,
      "tasmanian": 21394,
      "plaque": 11952,
      "dialogues": 22580,
      "civil": 2942,
      "linebacker": 15674,
      "eleventh": 11911,
      "walsh": 11019,
      "##前": 30302,
      "earthquakes": 17932,
      "youthful": 22446,
      "##ⱼ": 30157,
      "fu": 11865,
      "expeditions": 15014,
      "expenses": 11727,
      "[unused635]": 640,
      "##oya": 18232,
      "fort": 3481,
      "murderers": 28882,
      "glitter": 27566,
      "[unused841]": 846,
      "##bad": 9024,
      "haze": 16332,
      "yemen": 13968,
      "por": 18499,
      "##redo": 23417,
      "stating": 5517,
      "##illy": 20577,
      "nawab": 26543,
      "suggests": 6083,
      "##gie": 11239,
      "##rating": 15172,
      "transcript": 24051,
      "smarter": 25670,
      "r": 1054,
      "cater": 23488,
      "ebook": 26885,
      "soon": 2574,
      "##eem": 21564,
      "1981": 3261,
      "##«": 29654,
      "##hend": 22342,
      "liszt": 26273,
      "vamp": 20279,
      "##yer": 10532,
      "celaena": 29252,
      "raped": 15504,
      "devotion": 13347,
      "filters": 17736,
      "and": 1998,
      "transformers": 19081,
      "hai": 15030,
      "yusuf": 23495,
      "[unused467]": 472,
      "##仁": 30284,
      "##encies": 15266,
      "[unused437]": 442,
      "##oris": 21239,
      "kaitlyn": 28584,
      "50th": 12951,
      "dell": 12418,
      "##sible": 19307,
      "intellectuals": 17412,
      "leicestershire": 20034,
      "organizing": 10863,
      "casually": 13217,
      "curtiss": 26431,
      "cinderella": 21686,
      "moe": 22078,
      "patriots": 11579,
      "patient": 5776,
      "tugs": 29306,
      "[unused418]": 423,
      "##mill": 19912,
      "wharf": 16435,
      "abrupt": 18772,
      "stimuli": 22239,
      "[unused920]": 925,
      "goodbye": 9119,
      "[unused159]": 164,
      "santos": 11053,
      "¬": 1078,
      "##nce": 5897,
      "[unused578]": 583,
      "price": 3976,
      "##vish": 24968,
      "skyla": 21738,
      "##地": 30328,
      "responsibility": 5368,
      "dona": 24260,
      "##tri": 18886,
      "cope": 11997,
      "flank": 12205,
      "indifferent": 24436,
      "##trix": 29184,
      "alike": 11455,
      "associates": 9228,
      "[unused739]": 744,
      "##mura": 16069,
      "genius": 11067,
      "moaning": 22653,
      "truth": 3606,
      "overturned": 17068,
      "drain": 12475,
      "##lat": 20051,
      "delle": 24121,
      "bulb": 20581,
      "shutter": 28180,
      "##ogen": 23924,
      "cc": 10507,
      "potatoes": 14629,
      "bahia": 22474,
      "booster": 23715,
      "slaves": 7179,
      "##grave": 12830,
      "##dry": 21190,
      "visas": 24487,
      "cell": 3526,
      "[CLS]": 101,
      "[unused640]": 645,
      "docked": 25727,
      "ﬁ": 1984,
      "remastered": 19484,
      "europa": 12124,
      "49": 4749,
      "##mal": 9067,
      "[unused923]": 928,
      "disability": 11980,
      "mcdonnell": 23149,
      "involve": 9125,
      "bravery": 16534,
      "##aur": 21159,
      "##ﬂ": 30511,
      "gazes": 23514,
      "ara": 19027,
      "implementations": 24977,
      "chu": 14684,
      "[unused941]": 946,
      "##ab": 7875,
      "##dee": 26095,
      "##and": 5685,
      "productivity": 15836,
      "perpetual": 18870,
      "##eft": 29218,
      "##tale": 22059,
      "pile": 8632,
      "separate": 3584,
      "##pc": 15042,
      "zombies": 14106,
      "integrity": 11109,
      "##icle": 25128,
      "##wicz": 21355,
      "gardner": 11764,
      "sparsely": 24961,
      "238": 22030,
      "##som": 25426,
      "kicked": 6476,
      "27th": 15045,
      "columbia": 3996,
      "glancing": 10167,
      "ャ": 1728,
      "monarchy": 12078,
      "perceive": 23084,
      "[unused668]": 673,
      "##wart": 18367,
      "lennon": 14294,
      "williamson": 14333,
      "capitalist": 19640,
      "##陽": 30499,
      "destination": 7688,
      "ancestry": 11377,
      "##escu": 19434,
      "burials": 23109,
      "ে": 1381,
      "absorbing": 20998,
      "polymer": 17782,
      "professions": 22797,
      "revenge": 7195,
      "memphis": 9774,
      "tolerance": 13986,
      "whereabouts": 18913,
      "comrade": 27661,
      "##zation": 9276,
      "₈": 1555,
      "金": 1964,
      "theologian": 17200,
      "dubious": 22917,
      "paula": 13723,
      "autopsy": 24534,
      "[unused287]": 292,
      "buzz": 12610,
      "contributions": 5857,
      "##crest": 25313,
      "##mere": 13759,
      "descend": 18855,
      "detectives": 18145,
      "dna": 6064,
      "honoured": 15546,
      "plumbing": 27902,
      "##ホ": 30248,
      "[unused862]": 867,
      "##iously": 19426,
      "1841": 9840,
      "warnings": 16234,
      "##hir": 11961,
      "boyer": 23456,
      "occurrences": 27247,
      "taiwanese": 16539,
      "ft": 3027,
      "mausoleum": 19049,
      "ported": 27650,
      "##eiro": 17166,
      "endowment": 15108,
      "atom": 13787,
      "kawasaki": 27324,
      "movement": 2929,
      "creamy": 24519,
      "sheets": 8697,
      "rigid": 11841,
      "las": 5869,
      "paying": 7079,
      "elliptic": 29413,
      "kv": 24888,
      "crafted": 19275,
      "opening": 3098,
      "rushes": 18545,
      "sprinted": 25156,
      "condom": 20910,
      "##ng": 3070,
      "1948": 3882,
      "walks": 7365,
      "nasal": 19077,
      "[unused439]": 444,
      "##‖": 30054,
      "evacuate": 22811,
      "ensign": 19890,
      "##shida": 25541,
      "##ifiers": 28295,
      "doi": 9193,
      "lloyd": 6746,
      "outs": 21100,
      "demonstrating": 14313,
      "dislike": 18959,
      "painters": 12499,
      "1756": 22370,
      "326": 28188,
      "##emon": 26941,
      "diffusion": 19241,
      "radiation": 8249,
      "volumes": 6702,
      "rhodesia": 20340,
      "##enko": 17868,
      "pg": 18720,
      "frankfurt": 9780,
      "insight": 12369,
      "##ied": 6340,
      "paperback": 13611,
      "ᅧ": 1474,
      "ineffective": 20694,
      "gaping": 21226,
      "འ": 1433,
      "testosterone": 25937,
      "orphaned": 27093,
      "judicial": 8268,
      "星": 1866,
      "placed": 2872,
      "griffith": 14135,
      "dispersed": 15484,
      "basque": 13915,
      "nicholas": 6141,
      "bmw": 13154,
      "##her": 5886,
      "243": 22884,
      "biking": 28899,
      "##»": 29663,
      "website": 4037,
      "five": 2274,
      "[unused625]": 630,
      "[unused517]": 522,
      "teachers": 5089,
      "inquiries": 27050,
      "argue": 7475,
      "##aar": 26526,
      "angels": 7048,
      "moonlight": 11986,
      "mammalian": 26524,
      "migrants": 16836,
      "##front": 12792,
      "##า": 29958,
      "embarrassed": 10339,
      "johannesburg": 15976,
      "##生": 30436,
      "bursts": 19239,
      "bahamas": 17094,
      "sensors": 13907,
      "[unused71]": 72,
      "anything": 2505,
      "happened": 3047,
      "deliver": 8116,
      "##〜": 30171,
      "##ffy": 16329,
      "sizable": 25908,
      "slate": 12796,
      "##tang": 26067,
      "download": 8816,
      "idea": 2801,
      "shimmering": 22349,
      "grazed": 26627,
      "behave": 16582,
      "1797": 14112,
      "submitted": 7864,
      "easter": 10957,
      "bubba": 19606,
      "##zbek": 28733,
      "##き": 30178,
      "##tman": 22942,
      "志": 1851,
      "##bank": 9299,
      "pigeon": 16516,
      "intended": 3832,
      "##wara": 11872,
      "[unused692]": 697,
      "nope": 16780,
      "900": 7706,
      "nocturnal": 23789,
      "compulsion": 27638,
      "emissions": 11768,
      "##坂": 30329,
      "triumphant": 25251,
      "##ан": 28995,
      "bribe": 26470,
      "##zek": 24506,
      "coliseum": 18338,
      "lisbon": 11929,
      "relocated": 7448,
      "loco": 28046,
      "225": 14993,
      "##bow": 18912,
      "conflict": 4736,
      "mona": 13813,
      "amounted": 18779,
      "moreno": 17921,
      "ذ": 1279,
      "enjoys": 15646,
      "##je": 6460,
      "dominate": 16083,
      "1966": 3547,
      "prohibition": 13574,
      "[unused76]": 77,
      "bengali": 11267,
      "##nza": 16786,
      "qualifier": 10981,
      "##∈": 30124,
      "pick": 4060,
      "##mm": 7382,
      "##lten": 29005,
      "yates": 20356,
      "##rgo": 18581,
      "frescoes": 23360,
      "licenses": 15943,
      "confronting": 26964,
      "projects": 3934,
      "vivian": 13801,
      "##bh": 23706,
      "liaison": 14975,
      "ahead": 3805,
      "imaging": 12126,
      "she": 2016,
      "individual": 3265,
      "moshe": 27123,
      "coined": 13279,
      "influx": 18050,
      "advocate": 8175,
      "[unused284]": 289,
      "flights": 7599,
      "casablanca": 24592,
      "zoe": 11199,
      "paramount": 11734,
      "coop": 21859,
      "salaries": 20566,
      "serials": 28172,
      "##vino": 26531,
      "billionaire": 22301,
      "1737": 26738,
      "governments": 6867,
      "redding": 26687,
      "imply": 19515,
      "ル": 1733,
      "blinds": 28279,
      "choked": 12444,
      "250": 5539,
      "47": 4700,
      "pretend": 9811,
      "concerned": 4986,
      "forewings": 13211,
      "allocation": 16169,
      "266": 25162,
      "##dding": 27027,
      "pea": 26034,
      "##osomal": 27642,
      "flaw": 28450,
      "##च": 29854,
      "##ken": 7520,
      "atoms": 13353,
      "prasad": 17476,
      "##rber": 20473,
      "textiles": 18762,
      "rule": 3627,
      "parks": 6328,
      "##ture": 11244,
      "abolition": 15766,
      "tidal": 15065,
      "calling": 4214,
      "##rine": 11467,
      "scientists": 6529,
      "diversity": 8906,
      "gb": 16351,
      "parental": 18643,
      "##ay": 4710,
      "corrugated": 27186,
      "thoughtful": 16465,
      "stairs": 5108,
      "overshadowed": 28604,
      "gray": 3897,
      "##¢": 29645,
      "denis": 11064,
      "syracuse": 11736,
      "banquet": 19032,
      "accusation": 19238,
      "receptor": 10769,
      "ছ": 1357,
      "c2": 29248,
      "[unused486]": 491,
      "garnered": 13056,
      "economies": 18730,
      "##42": 20958,
      "ass": 4632,
      "illusion": 12492,
      "marrying": 13516,
      "adulthood": 20480,
      "च": 1318,
      "ح": 1276,
      "##titled": 21309,
      "bless": 19994,
      "ballot": 10428,
      "caught": 3236,
      "behavioral": 14260,
      "##nder": 11563,
      "##litz": 24725,
      "##rma": 17830,
      "nes": 24524,
      "1805": 13126,
      "passive": 13135,
      "callie": 20072,
      "cry": 5390,
      "chairs": 8397,
      "conferences": 9281,
      "hitch": 27738,
      "capcom": 26861,
      "piles": 18526,
      "enclosure": 17539,
      "contiguous": 25177,
      "##kha": 15256,
      "louisiana": 5773,
      "##っ": 30189,
      "toledo": 13163,
      "varieties": 9903,
      "susanna": 26681,
      "ந": 1386,
      "instability": 18549,
      "1718": 26995,
      "erich": 17513,
      "judgments": 26186,
      "##夫": 30339,
      "robes": 17925,
      "transfer": 4651,
      "presumably": 10712,
      "directory": 14176,
      "oceanic": 18955,
      "##ural": 11137,
      "horned": 26808,
      "##pas": 19707,
      "bandwidth": 20235,
      "##qui": 15549,
      "passions": 25289,
      "gritted": 17307,
      "##icing": 23553,
      "disneyland": 25104,
      "courtyard": 10119,
      "childless": 26983,
      "turning": 3810,
      "ʳ": 1142,
      "define": 9375,
      "exchanges": 15800,
      "aluminum": 13061,
      "abuses": 21078,
      "[unused646]": 651,
      "##rae": 16652,
      "indira": 28232,
      "ebert": 22660,
      "sonata": 14681,
      "##marine": 21966,
      "blackness": 19573,
      "1818": 12094,
      "derivation": 29280,
      "guyana": 18786,
      "recipients": 15991,
      "##claiming": 27640,
      "roach": 20997,
      "412": 25873,
      "detachment": 11009,
      "emory": 25853,
      "while": 2096,
      "##zyn": 23749,
      "midnight": 7090,
      "magma": 28933,
      "##zog": 28505,
      "sadler": 29012,
      "[unused222]": 227,
      "armchair": 29372,
      "seven": 2698,
      "spark": 12125,
      "affiliation": 12912,
      "johann": 8968,
      "specification": 12827,
      "commissions": 13239,
      "##osi": 20049,
      "affirmed": 19768,
      "resting": 8345,
      "points": 2685,
      "cora": 17195,
      "126": 14010,
      "broadcaster": 11995,
      "trainer": 10365,
      "##rwin": 27349,
      "##pid": 23267,
      "##福": 30452,
      "[unused781]": 786,
      "nato": 10079,
      "microwave": 18302,
      "##∇": 30123,
      "illuminated": 14640,
      "refueling": 23026,
      "sticky": 15875,
      "anybody": 10334,
      "her": 2014,
      "odi": 21045,
      "見": 1948,
      "##lice": 13231,
      "rockwell": 25235,
      "electoral": 6092,
      "##mada": 23574,
      "##urized": 28405,
      "##cal": 9289,
      "enhancement": 22415,
      "##ricting": 28827,
      "##ennial": 22929,
      "bray": 19743,
      "marina": 9985,
      "52": 4720,
      "constructions": 21913,
      "mariners": 18049,
      "injuries": 6441,
      "tag": 6415,
      "comb": 22863,
      "montagu": 26241,
      "auditory": 28042,
      "treating": 12318,
      "tad": 18819,
      "unicorn": 21830,
      "##grin": 24860,
      "otis": 18899,
      "early": 2220,
      "coca": 16787,
      "exile": 8340,
      "celebrates": 21566,
      "richards": 9712,
      "architects": 8160,
      "##ni": 3490,
      "##screen": 18182,
      "negotiating": 18875,
      "##aea": 21996,
      "collaborators": 21315,
      "parramatta": 22820,
      "household": 4398,
      "mcleod": 25363,
      "81": 6282,
      "##hosh": 26643,
      "stove": 16247,
      "whatever": 3649,
      "havre": 28890,
      "tequila": 26791,
      "incorporates": 12374,
      "managing": 6605,
      "plug": 13354,
      "peng": 26473,
      "hunted": 14682,
      "shepherd": 11133,
      "offers": 4107,
      "lane": 4644,
      "issued": 3843,
      "m3": 29061,
      "regard": 7634,
      "##alic": 27072,
      "collects": 17427,
      "¶": 1086,
      "##lland": 26087,
      "sensory": 16792,
      "##urer": 27595,
      "##stadt": 21543,
      "prohibit": 23469,
      "panthers": 12915,
      "dispatch": 18365,
      "##cott": 13124,
      "[unused433]": 438,
      "1726": 28342,
      "delighted": 15936,
      "ী": 1380,
      "cong": 26478,
      "cultivation": 13142,
      "ր": 1237,
      "nova": 6846,
      "[unused3]": 4,
      "twinkle": 29038,
      "ж": 1186,
      "[unused840]": 845,
      "840": 28122,
      "fought": 4061,
      "##iani": 25443,
      "彳": 1845,
      "vo": 29536,
      "##nat": 19833,
      "warwickshire": 18430,
      "booming": 24716,
      "napkin": 20619,
      "alvin": 17348,
      "sprinter": 19938,
      "cup": 2452,
      "proto": 15053,
      "##lon": 7811,
      "consolidation": 17439,
      "generosity": 26161,
      "grins": 20237,
      "##中": 30272,
      "listened": 7791,
      "standardization": 28648,
      "##nzo": 25650,
      "coaches": 7850,
      "##sten": 16173,
      "faithful": 11633,
      "restless": 15035,
      "unfit": 29439,
      "connects": 8539,
      "kassel": 27884,
      "sic": 14387,
      "##nsis": 11745,
      "piston": 16733,
      "alexis": 13573,
      "unlimited": 14668,
      "jewish": 3644,
      "frankish": 26165,
      "adaptations": 17241,
      "betrayal": 14583,
      "warn": 11582,
      "lowest": 7290,
      "persuade": 13984,
      "7th": 5504,
      "manfred": 19149,
      "egan": 27889,
      "strikeouts": 20813,
      "##安": 30346,
      "providing": 4346,
      "gandhi": 12338,
      "crawled": 12425,
      "##ieu": 17301,
      "convection": 23849,
      "ス": 1707,
      "conventional": 7511,
      "dickinson": 17590,
      "republicans": 10643,
      "weiss": 17889,
      "cleveland": 6044,
      "cages": 27157,
      "catholics": 10774,
      "##ched": 7690,
      "##ors": 5668,
      "presiding": 18131,
      "commentaries": 21241,
      "morphology": 19476,
      "navajo": 22440,
      "978": 4891,
      "must": 2442,
      "paralyzed": 22348,
      "brennan": 13962,
      "camping": 13215,
      "philippine": 7802,
      "norm": 13373,
      "object": 4874,
      "##iom": 18994,
      "##rose": 13278,
      "warmed": 17336,
      "unseen": 16100,
      "looting": 29367,
      "[unused738]": 743,
      "fourier": 26899,
      "maximus": 21692,
      "digits": 16648,
      "inactive": 16389,
      "criticizing": 21289,
      "##ting": 3436,
      "noticing": 15103,
      "brand": 4435,
      "visibility": 16476,
      "scripted": 22892,
      "of": 1997,
      "anastasia": 19447,
      "trillion": 23458,
      "dodd": 21258,
      "welsh": 6124,
      "exploding": 20728,
      "sanitary": 25480,
      "##fer": 7512,
      "campaigned": 16196,
      "patsy": 25382,
      "experimentation": 21470,
      "1844": 9730,
      "purchased": 4156,
      "entertaining": 14036,
      "mothers": 10756,
      "istanbul": 9960,
      "suites": 19796,
      "quilt": 27565,
      "##gawa": 21188,
      "martinique": 29365,
      "worship": 7425,
      "##ised": 5084,
      "##iful": 18424,
      "737": 22061,
      "[unused752]": 757,
      "##finder": 23695,
      "1994": 2807,
      "valiant": 24329,
      "[unused670]": 675,
      "caution": 14046,
      "trouble": 4390,
      "vent": 18834,
      "year": 2095,
      "loyola": 21580,
      "##eres": 18702,
      "angles": 12113,
      "territory": 3700,
      "janice": 20029,
      "recover": 8980,
      "ultimately": 4821,
      "vapor": 20064,
      "processor": 13151,
      "prescription": 20422,
      "arden": 26225,
      "##vio": 25500,
      "##mos": 15530,
      "##ʲ": 29707,
      "##ructured": 26134,
      "dual": 7037,
      "303": 19988,
      "kenji": 25894,
      "saxons": 28267,
      "##林": 30407,
      "progressive": 6555,
      "[unused484]": 489,
      "meiji": 23214,
      "funk": 11962,
      "priesthood": 17911,
      "devotees": 22707,
      "sail": 9498,
      "clit": 17962,
      "fished": 26281,
      "north": 2167,
      "shipyard": 13858,
      "lt": 8318,
      "##asurable": 28329,
      "##bilities": 14680,
      "mat": 13523,
      "antennae": 28624,
      "tribes": 6946,
      "airfield": 9087,
      "malls": 25943,
      "##曲": 30396,
      "carmichael": 23537,
      "##ny": 4890,
      "##isk": 20573,
      "##rzy": 28534,
      "aix": 28443,
      "bratislava": 22992,
      "assure": 14306,
      "sparta": 21251,
      "caller": 20587,
      "##berman": 23991,
      "shops": 7340,
      "websites": 11744,
      "##omorphic": 28503,
      "nsa": 23971,
      "kent": 5982,
      "##imate": 21499,
      "croats": 26222,
      "shane": 8683,
      "paint": 6773,
      "eras": 28500,
      "fuse": 19976,
      "##git": 23806,
      "abdullah": 14093,
      "conviction": 10652,
      "区": 1782,
      "around": 2105,
      "##–": 30051,
      "##relli": 22948,
      "hymns": 17777,
      "eclectic": 20551,
      "60s": 20341,
      "turkmenistan": 25432,
      "medley": 13863,
      "cavern": 16679,
      "##ia": 2401,
      "neglected": 15486,
      "racing": 3868,
      "crowley": 20748,
      "obituary": 20815,
      "雄": 1974,
      "begun": 5625,
      "`": 1036,
      "ventilation": 19536,
      "eats": 20323,
      "172": 18253,
      "conservatives": 11992,
      "hawks": 12505,
      "##a1": 27717,
      "illustrate": 19141,
      "written": 2517,
      "model": 2944,
      "locker": 12625,
      "##wari": 20031,
      "waterfalls": 24236,
      "qatar": 12577,
      "##iling": 16281,
      "cartoon": 9476,
      "embroidered": 23590,
      "richly": 26502,
      "much": 2172,
      "retire": 11036,
      "bryant": 12471,
      "abandoning": 19816,
      "##ung": 5575,
      "hind": 17666,
      "##ocating": 27483,
      "imagine": 5674,
      "learning": 4083,
      "raoul": 22063,
      "batteries": 10274,
      "##iec": 23783,
      "loser": 10916,
      "∗": 1598,
      "bismarck": 22029,
      "##walker": 26965,
      "##di": 4305,
      "struggles": 11785,
      "lands": 4915,
      "##ugh": 8953,
      "[unused644]": 649,
      "sofia": 8755,
      "processes": 6194,
      "[unused903]": 908,
      "suarez": 22551,
      "siding": 17326,
      "##49": 26224,
      "patterns": 7060,
      "cited": 6563,
      "thematic": 23539,
      "##nath": 16207,
      "cdc": 26629,
      "[unused318]": 323,
      "howled": 27489,
      "dakota": 7734,
      "ethiopia": 11154,
      "insult": 15301,
      "somme": 25158,
      "honors": 7836,
      "##yna": 18279,
      "worth": 4276,
      "andrei": 18125,
      "hutchinson": 17165,
      "##fm": 16715,
      "fundamentally": 24670,
      "whispering": 13550,
      "patience": 11752,
      "roosevelt": 8573,
      "1820s": 28504,
      "interception": 17385,
      "newfoundland": 11944,
      "mitsubishi": 19695,
      "armament": 14410,
      "##nostic": 28199,
      "safety": 3808,
      "varied": 9426,
      "lori": 18669,
      "nfc": 22309,
      "relic": 24933,
      "ugly": 9200,
      "usage": 8192,
      "[unused37]": 38,
      "calcium": 13853,
      "lark": 23404,
      "###": 29614,
      "tissue": 8153,
      "beating": 6012,
      "ambushed": 22168,
      "exposure": 7524,
      "polynomials": 28175,
      "bird": 4743,
      "chavez": 16860,
      "glazed": 19724,
      "shows": 3065,
      "kumar": 9600,
      "squinting": 29156,
      "##itt": 12474,
      "insurgency": 23939,
      "[unused968]": 973,
      "[unused8]": 9,
      "somerville": 27209,
      "darted": 14051,
      "radical": 7490,
      "irresistible": 27149,
      "##lvis": 28530,
      "inner": 5110,
      "wu": 8814,
      "suffering": 6114,
      "##tula": 28970,
      "boyle": 16694,
      "[unused943]": 948,
      "controversy": 6704,
      "460": 17267,
      "lb": 6053,
      "solids": 26778,
      "journey": 4990,
      "modification": 14080,
      "##laya": 22923,
      "breathe": 7200,
      "stab": 17079,
      "[unused659]": 664,
      "donald": 6221,
      "##een": 12129,
      "emerson": 12628,
      "grind": 23088,
      "$": 1002,
      "##⁰": 30071,
      "##ipe": 15457,
      "reviewing": 15252,
      "aren": 4995,
      "tying": 15233,
      "defiance": 19674,
      "ottoman": 6188,
      "knit": 22404,
      "##schaft": 26527,
      "ن": 1296,
      "costly": 17047,
      "renewed": 9100,
      "everyone": 3071,
      "marty": 12578,
      "137": 14989,
      "defects": 18419,
      "##dicate": 16467,
      "ushered": 23815,
      "broadcasts": 8960,
      "[unused217]": 222,
      "applicants": 17362,
      "[unused540]": 545,
      "savoy": 16394,
      "lynch": 11404,
      "symphony": 6189,
      "horrible": 9202,
      "middleweight": 18741,
      "focuses": 7679,
      "productive": 13318,
      "##ع": 29830,
      "उ": 1313,
      "biographer": 17121,
      "##正": 30414,
      "dyke": 22212,
      "chased": 13303,
      "similarity": 14402,
      "pleas": 22512,
      "yellowstone": 29231,
      "hacker": 23307,
      "##tea": 27058,
      "##ctable": 23576,
      "##nberg": 11144,
      "slice": 14704,
      "duration": 9367,
      "turrets": 21088,
      "##gman": 25494,
      "hilltop": 25566,
      "colours": 8604,
      "[unused520]": 525,
      "1825": 11384,
      "face": 2227,
      "clips": 15281,
      "[unused703]": 708,
      "tire": 12824,
      "grimly": 22561,
      "##ps": 4523,
      "elliott": 9899,
      "vogue": 17734,
      "approval": 6226,
      "##ies": 3111,
      "dragging": 11920,
      "##wen": 12449,
      "sorcerer": 23324,
      "natural": 3019,
      "sentencing": 23280,
      "##部": 30486,
      "xii": 14371,
      "##the": 10760,
      "choi": 18151,
      "freaked": 22783,
      "improvement": 7620,
      "1968": 3380,
      "southbound": 19751,
      "quinn": 8804,
      "enlarged": 11792,
      "appointment": 6098,
      "aesthetics": 20749,
      "balkans": 19733,
      "door": 2341,
      "hari": 21291,
      "[unused792]": 797,
      "temeraire": 23611,
      "corinne": 26879,
      "##chy": 11714,
      "normandy": 13298,
      "favors": 21191,
      "och": 28166,
      "newmarket": 22489,
      "observing": 14158,
      "uefa": 6663,
      "withdrawing": 21779,
      "cleaner": 20133,
      "ropes": 14607,
      "？": 1994,
      "##xed": 19068,
      "grouping": 19765,
      "##gizing": 28660,
      "2008": 2263,
      "保": 1766,
      "##utter": 26878,
      "##fed": 25031,
      "refrigerator": 18097,
      "securely": 28999,
      "##lassified": 24938,
      "[unused815]": 820,
      "##ively": 14547,
      "部": 1960,
      "cores": 25562,
      "cynical": 26881,
      "peoples": 7243,
      "##ex": 10288,
      "cave": 5430,
      "enabled": 9124,
      "courageous": 26103,
      "attempting": 7161,
      "##in": 2378,
      "##hand": 11774,
      "##core": 17345,
      "slayer": 20005,
      "sensed": 10596,
      "typical": 5171,
      "planet": 4774,
      "remarks": 12629,
      "##‡": 30062,
      "happy": 3407,
      "1663": 29016,
      "lighthouse": 10171,
      "surgeon": 9431,
      "nipple": 14298,
      "britannia": 24677,
      "##nee": 24045,
      "transfers": 15210,
      "female": 2931,
      "vet": 29525,
      "cypress": 22183,
      "marshall": 5832,
      "platform": 4132,
      "inch": 4960,
      "sued": 12923,
      "ops": 23092,
      "impacted": 19209,
      "##just": 29427,
      "##־": 29787,
      "marlene": 26921,
      "assassins": 18364,
      "##ssar": 25556,
      "##ll": 3363,
      "liked": 4669,
      "##cum": 24894,
      "grenade": 17038,
      "peanuts": 27613,
      "balloons": 22163,
      "福": 1926,
      "←": 1583,
      "行": 1945,
      "suited": 10897,
      "translation": 5449,
      "mode": 5549,
      "##iated": 15070,
      "starring": 4626,
      "breathed": 8726,
      "whore": 17219,
      "##hor": 16368,
      "overhead": 8964,
      "drawn": 4567,
      "nikolay": 28494,
      "detachments": 29568,
      "noon": 11501,
      "cleopatra": 22003,
      "up": 2039,
      "glamour": 22439,
      "##ao": 7113,
      "kinase": 21903,
      "shaped": 5044,
      "leaves": 3727,
      "##vc": 25465,
      "nos": 16839,
      "wins": 5222,
      "erie": 13374,
      "dragons": 8626,
      "senegal": 16028,
      "##fting": 26169,
      "hurting": 11878,
      "ভ": 1369,
      "cam": 11503,
      "》": 1640,
      "enough": 2438,
      "406": 27433,
      "hua": 23064,
      "##mer": 5017,
      "poor": 3532,
      "nice": 3835,
      "rocking": 14934,
      "app": 10439,
      "armand": 20371,
      "barrie": 24953,
      "rolf": 23381,
      "chilled": 23362,
      "contacted": 11925,
      "630": 23609,
      "timeless": 27768,
      "##tsu": 10422,
      "operating": 4082,
      "##nu": 11231,
      "##vili": 21661,
      "lair": 21039,
      "glanced": 3887,
      "craven": 21232,
      "critically": 11321,
      "220": 10545,
      "guiding": 14669,
      "chosen": 4217,
      "claudia": 13479,
      "##ayton": 29319,
      "##istic": 6553,
      "okinawa": 15052,
      "triangles": 27189,
      "harmon": 25546,
      "chung": 15972,
      "##leigh": 13615,
      "volkswagen": 18817,
      "irregularities": 28868,
      "rude": 12726,
      "ripley": 25231,
      "freshmen": 26612,
      "ella": 11713,
      "mp3": 23378,
      "lucy": 7004,
      "trivial": 20610,
      "lola": 15137,
      "distinguished": 5182,
      "ecumenical": 23540,
      "neighbors": 10638,
      "##inating": 19185,
      "dialogue": 7982,
      "solve": 9611,
      "time": 2051,
      "entrusted": 18011,
      "vi": 6819,
      "zenith": 28672,
      "##chai": 24925,
      "humanity": 8438,
      "again": 2153,
      "newcomer": 16866,
      "1100": 22096,
      "ir": 20868,
      "triumph": 10911,
      "kathmandu": 28045,
      "nagoya": 24425,
      "inhabitants": 4864,
      "slowing": 18068,
      "munro": 20923,
      "##arus": 29133,
      "129": 14378,
      "settled": 3876,
      "attached": 4987,
      "scotch": 18937,
      "##dalen": 26414,
      "[unused822]": 827,
      "entertainer": 21751,
      "dinner": 4596,
      "given": 2445,
      "wars": 5233,
      "bright": 4408,
      "ɨ": 1118,
      "sci": 16596,
      "lions": 7212,
      "thin": 4857,
      "1891": 6607,
      "##'": 29618,
      "furnishings": 23127,
      "winslow": 26600,
      "annum": 28907,
      "##laid": 24393,
      "dwarfs": 28984,
      "encounters": 11340,
      "selective": 13228,
      "messed": 18358,
      "regents": 22832,
      "##aire": 14737,
      "##長": 30493,
      "footballer": 4362,
      "meta": 18804,
      "deal": 3066,
      "##aged": 18655,
      "comune": 21130,
      "##ka": 2912,
      "immigrants": 7489,
      "increasingly": 6233,
      "snarled": 15022,
      "##birds": 12887,
      "documentaries": 15693,
      "ᆯ": 1486,
      "128": 11899,
      "bell": 4330,
      "julio": 15090,
      "haitian": 21404,
      "neural": 15756,
      "fascism": 23779,
      "cremated": 28376,
      "system": 2291,
      "kazan": 22001,
      "mans": 16042,
      "affectionately": 28734,
      "##wk": 26291,
      "amor": 16095,
      "detroit": 5626,
      "lasers": 23965,
      "wreckage": 21056,
      "houses": 3506,
      "670": 25535,
      "tak": 27006,
      "cumberland": 12310,
      "annoying": 15703,
      "##chan": 14856,
      "1906": 5518,
      "##oc": 10085,
      "##uso": 26658,
      "##bly": 6321,
      "genetic": 7403,
      "1710": 23841,
      "downwards": 28457,
      "flashed": 8373,
      "remy": 22712,
      "falls": 4212,
      "porsche": 16099,
      "overtook": 28920,
      "crossing": 5153,
      "rigged": 25216,
      "augusto": 29085,
      "breeders": 20823,
      "sultanate": 21308,
      "disciplines": 12736,
      "neighborhood": 5101,
      "colombo": 16224,
      "symphonic": 18957,
      "martina": 23508,
      "bipolar": 29398,
      "lexi": 16105,
      "hermes": 24127,
      "starting": 3225,
      "campaign": 3049,
      "gallery": 3916,
      "sheridan": 13243,
      "1845": 9512,
      "italian": 3059,
      "dino": 22412,
      "milling": 22491,
      "noir": 15587,
      "guarded": 13802,
      "ghana": 9701,
      "contracting": 21012,
      "jock": 23407,
      "attributes": 12332,
      "ᵈ": 1498,
      "marylebone": 28537,
      "##ade": 9648,
      "##rak": 16555,
      "philipp": 20765,
      "dressing": 11225,
      "gaza": 14474,
      "coral": 11034,
      "1754": 22593,
      "manifest": 19676,
      "##day": 10259,
      "ᅭ": 1477,
      "pacing": 15732,
      "ħ": 1103,
      "##amp": 16613,
      "increased": 3445,
      "loomed": 24358,
      "verse": 7893,
      "keller": 16155,
      "implementing": 14972,
      "discs": 15303,
      "w": 1059,
      "॥": 1345,
      "##ʐ": 29702,
      "212": 18164,
      "##ᄀ": 29991,
      "prisoners": 5895,
      "[unused713]": 718,
      "lowlands": 26411,
      "##lang": 25023,
      "lucifer": 24184,
      "tipping": 25486,
      "schwartz": 16756,
      "##igo": 14031,
      "⇄": 1589,
      "card": 4003,
      "inappropriate": 15884,
      "##ci": 6895,
      "reverse": 7901,
      "吉": 1793,
      "##ganj": 22738,
      "brood": 25565,
      "##ᄃ": 29993,
      "isn": 3475,
      "##tus": 5809,
      "options": 7047,
      "cassandra": 15609,
      "##onzo": 29452,
      "experimented": 20918,
      "[unused827]": 832,
      "abstracts": 29474,
      "420": 17442,
      "caleb": 10185,
      "be": 2022,
      "clock": 5119,
      "stem": 7872,
      "midlands": 13256,
      "benedictine": 21139,
      "primetime": 18474,
      "3rd": 3822,
      "often": 2411,
      "##ц": 29751,
      "հ": 1228,
      "##zaki": 18637,
      "wildly": 13544,
      "misunderstanding": 24216,
      "##ister": 12911,
      "libya": 12917,
      "pig": 10369,
      "corporation": 3840,
      "celtics": 23279,
      "preferring": 21393,
      "##trum": 24456,
      "rising": 4803,
      "仁": 1758,
      "##monium": 26387,
      "receipts": 28258,
      "##ster": 6238,
      "epilogue": 24297,
      "mildly": 19499,
      "cinematography": 16434,
      "unhappy": 12511,
      "5000": 13509,
      "yuri": 14331,
      "salvage": 18340,
      "ɑ": 1110,
      "##そ": 30186,
      "upward": 10745,
      "salon": 11090,
      "##ия": 23483,
      "mfa": 26913,
      "pasture": 20787,
      "relies": 16803,
      "quoting": 27394,
      "dazed": 19720,
      "tablets": 17596,
      "heroine": 18869,
      "rings": 7635,
      "thou": 15223,
      "corona": 21887,
      "##elo": 18349,
      "ན": 1429,
      "1679": 27924,
      "mobile": 4684,
      "unavailable": 20165,
      "##bt": 19279,
      "peterborough": 17587,
      "raw": 6315,
      "backpack": 13383,
      "miracle": 9727,
      "hypothetical": 25613,
      "collision": 12365,
      "gesturing": 22317,
      "1910s": 28088,
      "##dner": 28001,
      "[unused574]": 579,
      "##icum": 22167,
      "attitude": 7729,
      "dod": 26489,
      "intend": 13566,
      "285": 21777,
      "[unused325]": 330,
      "##rok": 27923,
      "opportunities": 6695,
      "rotten": 11083,
      "abraham": 8181,
      "inventory": 12612,
      "##kim": 21138,
      "lax": 27327,
      "stagecoach": 26025,
      "##lma": 19145,
      "dyer": 23494,
      "##м": 29745,
      "##eza": 28640,
      "1795": 13397,
      "helplessly": 24942,
      "gardening": 21529,
      "retribution": 25928,
      "khalid": 21828,
      "##ulated": 8898,
      "me": 2033,
      "burnett": 13829,
      "clapton": 24705,
      "sustain": 15770,
      "##gt": 13512,
      "hedge": 17834,
      "councils": 10784,
      "smiley": 27420,
      "##carriage": 21539,
      "gene": 4962,
      "rees": 22131,
      "##hampton": 21946,
      "came": 2234,
      "commemorate": 13415,
      "undrafted": 21347,
      "##vision": 17084,
      "simone": 14072,
      "join": 3693,
      "slender": 10944,
      "emerging": 8361,
      "[unused41]": 42,
      "army": 2390,
      "uganda": 10031,
      "1703": 28366,
      "split": 3975,
      "serial": 7642,
      "##fish": 7529,
      "investigation": 4812,
      "tore": 9538,
      "cop": 8872,
      "won": 2180,
      "goats": 17977,
      "inquiry": 9934,
      "##ley": 3051,
      "cho": 16480,
      "##ouk": 27967,
      "recycled": 22207,
      "surrounded": 5129,
      "[unused455]": 460,
      "##yin": 25811,
      "mirror": 5259,
      "##aer": 27867,
      "indicate": 5769,
      "newt": 25597,
      "evolutionary": 12761,
      "discussions": 10287,
      "types": 4127,
      "deer": 8448,
      "dismissing": 28913,
      "flaps": 26570,
      "geelong": 18664,
      "pistols": 18248,
      "tactics": 9887,
      "trailers": 21389,
      "imprint": 15738,
      "enjoy": 5959,
      "leopold": 12752,
      "acres": 4631,
      "skins": 21049,
      "##sily": 26863,
      "redhead": 26705,
      "subtropical": 11935,
      "[unused602]": 607,
      "sax": 19656,
      "recital": 25521,
      "errors": 10697,
      "exempt": 11819,
      "wyoming": 10622,
      "##lies": 11983,
      "##paper": 23298,
      "lowland": 15234,
      "middletown": 28747,
      "wagner": 10304,
      "bowler": 14999,
      "21": 2538,
      "handkerchief": 23975,
      "alexa": 24969,
      "chill": 10720,
      "determines": 16463,
      "savage": 9576,
      "[unused905]": 910,
      "obsolete": 15832,
      "scrolls": 23074,
      "inside": 2503,
      "partnerships": 13797,
      "dip": 16510,
      "##piration": 16781,
      "groves": 21695,
      "##မ": 29973,
      "cooperate": 17654,
      "anya": 21728,
      "306": 24622,
      "taunton": 28181,
      "##kor": 21815,
      "b1": 29491,
      "##gging": 12588,
      "hurrying": 27951,
      "speedy": 26203,
      "misery": 14624,
      "meal": 7954,
      "flame": 8457,
      "flanders": 13998,
      "punjab": 9213,
      "anglia": 24217,
      "keepers": 24018,
      "feelings": 5346,
      "madame": 10602,
      "convince": 8054,
      "concentrations": 14061,
      "zen": 16729,
      "thirty": 4228,
      "bonfire": 28698,
      "contraction": 21963,
      "playoffs": 7555,
      "ᵍ": 1500,
      "rainforest": 18951,
      "##iss": 14643,
      "preceded": 11677,
      "generally": 3227,
      "tanaka": 21829,
      "##ri": 3089,
      "brunswick": 9192,
      "stocks": 15768,
      "flew": 5520,
      "asian": 4004,
      "possible": 2825,
      "##feng": 24383,
      "##chuk": 26516,
      "vhf": 27527,
      "unbearable": 24257,
      "##sley": 8002,
      "yeast": 21957,
      "##iva": 11444,
      "##leen": 24129,
      "licking": 17033,
      "suggested": 4081,
      "simon": 4079,
      "monarch": 11590,
      "loire": 20399,
      "connie": 16560,
      "rockets": 12496,
      "malcolm": 8861,
      "₍": 1558,
      "##‰": 30065,
      "number": 2193,
      "clipped": 20144,
      "payment": 7909,
      "sheds": 25999,
      "priority": 9470,
      "hummed": 26747,
      "##talk": 28014,
      "bonds": 9547,
      "award": 2400,
      "honduras": 14373,
      "nuns": 16752,
      "rufus": 18316,
      "grimace": 25898,
      "stitch": 26035,
      "gil": 13097,
      "bombs": 9767,
      "legislators": 22680,
      "differed": 19541,
      "##tia": 10711,
      "##firm": 27972,
      "dish": 9841,
      "listening": 5962,
      "##ш": 29753,
      "predicting": 29458,
      "kerr": 14884,
      "genetics": 14471,
      "succeed": 9510,
      "《": 1639,
      "unlawful": 22300,
      "‑": 1514,
      "##ɹ": 29691,
      "starred": 5652,
      "divisions": 5908,
      "zipper": 22082,
      "buck": 10131,
      "greene": 11006,
      "##ow": 5004,
      "almond": 26011,
      "[unused893]": 898,
      "conferred": 15186,
      "avalon": 18973,
      "crews": 10604,
      "meyrick": 15228,
      "##tops": 25181,
      "spectacle": 21177,
      "linnaeus": 21610,
      "onwards": 9921,
      "tallest": 13747,
      "marks": 6017,
      "width": 9381,
      "##avio": 28471,
      "caldwell": 16589,
      "applying": 11243,
      "jiangsu": 28091,
      "[unused735]": 740,
      "filing": 15242,
      "ox": 23060,
      "climb": 7105,
      "##op": 7361,
      "tully": 25724,
      "maccabi": 24055,
      "490": 22288,
      "##roy": 13238,
      "zur": 17924,
      "dom": 14383,
      "because": 2138,
      "yokohama": 20507,
      "scan": 13594,
      "##ta": 2696,
      "along": 2247,
      "suspense": 23873,
      "##osaurus": 25767,
      "florian": 29517,
      "##able": 3085,
      "##nah": 15272,
      "gia": 27699,
      "minded": 13128,
      "[unused308]": 313,
      "##im": 5714,
      "##escence": 28964,
      "incident": 5043,
      "seating": 10747,
      "jean": 3744,
      "athlete": 8258,
      "##enary": 24553,
      "coordinate": 13530,
      "flickering": 20046,
      "trusted": 9480,
      "fable": 28458,
      "decision": 3247,
      "##pling": 14353,
      "##aurus": 17342,
      "##iting": 15402,
      "##esses": 26636,
      "sportsman": 27168,
      "showing": 4760,
      "1876": 7326,
      "subject": 3395,
      "wal": 24547,
      "allie": 16944,
      "athletes": 7576,
      "stone": 2962,
      "nazi": 6394,
      "ulrich": 19619,
      "1839": 10011,
      "tailored": 21727,
      "≈": 1606,
      "execute": 15389,
      "objection": 22224,
      "flu": 19857,
      "##qing": 19784,
      "נ": 1257,
      "skills": 4813,
      "token": 19204,
      "tripped": 21129,
      "reward": 10377,
      "##icia": 24108,
      "versatile": 22979,
      "bernardino": 21370,
      "[unused115]": 120,
      "pumped": 16486,
      "amusement": 9778,
      "skylar": 27970,
      "billie": 18210,
      "##ssing": 18965,
      "antiquity": 16433,
      "businesses": 5661,
      "##music": 27275,
      "engages": 24255,
      "bmg": 24499,
      "seizures": 25750,
      "ය": 1404,
      "demonstrates": 16691,
      "##edo": 26010,
      "##田": 30437,
      "weakness": 11251,
      "##kon": 19648,
      "usher": 20774,
      "shoreline": 17721,
      "580": 23712,
      "complications": 12763,
      "[unused474]": 479,
      "cycles": 12709,
      "processing": 6364,
      "ezra": 16245,
      "spawning": 27957,
      "##fahan": 28975,
      "advancement": 12607,
      "crust": 19116,
      "fluttered": 18360,
      "sud": 19219,
      "levy": 12767,
      "crosses": 7821,
      "sexual": 4424,
      "littered": 24777,
      "separated": 5459,
      "echo": 9052,
      "bones": 5944,
      "gloucestershire": 15905,
      "##thor": 27844,
      "##dev": 24844,
      "[unused992]": 997,
      "cows": 17188,
      "aragon": 16146,
      "##na": 2532,
      "##ieri": 21939,
      "outdoor": 7254,
      "weren": 4694,
      "canton": 8770,
      "sponsored": 6485,
      "energies": 19320,
      "##nac": 18357,
      "sustainable": 9084,
      "##aki": 8978,
      "parentheses": 27393,
      "accessibility": 23661,
      "hillside": 18573,
      "36": 4029,
      "reapers": 27733,
      "##red": 5596,
      "witnessed": 9741,
      "speed": 3177,
      "dubois": 26258,
      "seminary": 8705,
      "fifty": 5595,
      "rosary": 28291,
      "jake": 5180,
      "spider": 6804,
      "usa": 3915,
      "essendon": 25149,
      "忠": 1852,
      "##ի": 29772,
      "##cious": 18436,
      "ordering": 13063,
      "qui": 21864,
      "streetcar": 21420,
      "landing": 4899,
      "liza": 20503,
      "gujarat": 14288,
      "ruthless": 18101,
      "kala": 26209,
      "ゆ": 1683,
      "wrexham": 27119,
      "nipples": 28124,
      "indonesian": 9003,
      "reaper": 19559,
      "##ium": 5007,
      "offspring": 13195,
      "suspects": 13172,
      "constituency": 5540,
      "annexation": 18985,
      "simpler": 16325,
      "forums": 21415,
      "benito": 23595,
      "##ire": 7442,
      "philippines": 5137,
      "糹": 1934,
      "brewer": 18710,
      "quiver": 29049,
      "##bha": 22655,
      "increases": 7457,
      "diver": 17856,
      "##´s": 21932,
      "failed": 3478,
      "##ᄎ": 30001,
      "ni": 9152,
      "reformation": 13708,
      "match": 2674,
      "simplified": 11038,
      "fills": 17469,
      "##enstein": 21819,
      "orchards": 22976,
      "litre": 16812,
      "nap": 18996,
      "claw": 15020,
      "lunged": 17755,
      "undergone": 17215,
      "spies": 16794,
      "smirk": 15081,
      "136": 15407,
      "td": 14595,
      "##」": 30168,
      "smug": 20673,
      "skeletal": 20415,
      "dewey": 20309,
      "petitioned": 22527,
      "specialised": 17009,
      "[unused852]": 857,
      "##ula": 7068,
      "exploring": 11131,
      "མ": 1432,
      "connector": 19400,
      "peninsula": 6000,
      "##κ": 29726,
      "banco": 28678,
      "herzegovina": 11453,
      "warren": 6031,
      "##ffie": 29055,
      "engineer": 3992,
      "scented": 25738,
      "probably": 2763,
      "mouth": 2677,
      "##ᆸ": 30024,
      "sabine": 18578,
      "rows": 10281,
      "appears": 3544,
      "smacked": 19203,
      "bug": 11829,
      "simulator": 25837,
      "autobiographical": 18534,
      "spaniards": 20999,
      "harding": 15456,
      "traps": 16735,
      "nigel": 12829,
      "presentation": 8312,
      "xp": 26726,
      "##enay": 27727,
      "dusk": 18406,
      "asahi": 29465,
      "anthropologist": 21571,
      "notable": 3862,
      "drawers": 22497,
      "specialists": 15744,
      "sava": 28350,
      "sac": 17266,
      "bravo": 17562,
      "[unused519]": 524,
      "fifties": 25942,
      "til": 18681,
      "exclusive": 7262,
      "[unused426]": 431,
      "kind": 2785,
      "##uram": 27618,
      "ʂ": 1129,
      "exploited": 18516,
      "entrance": 4211,
      "troop": 10123,
      "rein": 27788,
      "geography": 10505,
      "fuselage": 13478,
      "##cchi": 25955,
      "antonia": 24272,
      "cyclist": 14199,
      "[unused608]": 613,
      "portfolio": 11103,
      "canadian": 3010,
      "leak": 17271,
      "purely": 11850,
      "lifts": 13695,
      "forming": 5716,
      "##ل": 23673,
      "leased": 12019,
      "س": 1282,
      "science": 2671,
      "eyelashes": 25150,
      "cube": 14291,
      "newly": 4397,
      "salle": 18005,
      "jakarta": 14426,
      "sky": 3712,
      "peculiar": 14099,
      "churches": 5231,
      "1840": 8905,
      "muttering": 22581,
      "proceeded": 8979,
      "rider": 7945,
      "christy": 21550,
      "112": 11176,
      "autonomous": 8392,
      "pitches": 19299,
      "astronomers": 26357,
      "northamptonshire": 21367,
      "janata": 20308,
      "mohammad": 12050,
      "statue": 6231,
      "##，": 30515,
      "indicative": 24668,
      "bedside": 19475,
      "##sio": 20763,
      "[unused879]": 884,
      "[unused378]": 383,
      "fist": 7345,
      "compilation": 6268,
      "streets": 4534,
      "##phila": 26083,
      "acted": 6051,
      "agree": 5993,
      "rampant": 25883,
      "agency": 4034,
      "adults": 6001,
      "heal": 11005,
      "agrarian": 23226,
      "##gaard": 18839,
      "aircraft": 2948,
      "curiously": 16484,
      "familiarity": 24666,
      "declan": 16494,
      "##non": 8540,
      "photographs": 7008,
      "transmitter": 11659,
      "unfamiliar": 16261,
      "ى": 1299,
      "heterosexual": 28229,
      "##sma": 26212,
      "accent": 9669,
      "boating": 23639,
      "##е": 15290,
      "features": 2838,
      "boarded": 17383,
      "##yya": 19903,
      "##helm": 24546,
      "##dman": 21804,
      "bro": 22953,
      "##ric": 7277,
      "£": 1069,
      "kurdistan": 23627,
      "invited": 4778,
      "maria": 3814,
      "bertrand": 20586,
      "##biotic": 26591,
      "cfl": 18830,
      "117": 12567,
      "tackle": 11147,
      "vito": 25550,
      "##sor": 21748,
      "##orus": 21694,
      "dieter": 27976,
      "memoir": 12558,
      "timmy": 27217,
[...]
